const unsigned char trained_tflite[] = {
  0x1c, 0x00, 0x00, 0x00, 0x54, 0x46, 0x4c, 0x33, 0x00, 0x00, 0x12, 0x00,
  0x1c, 0x00, 0x04, 0x00, 0x08, 0x00, 0x0c, 0x00, 0x10, 0x00, 0x14, 0x00,
  0x00, 0x00, 0x18, 0x00, 0x12, 0x00, 0x00, 0x00, 0x03, 0x00, 0x00, 0x00,
  0x10, 0x23, 0x00, 0x00, 0xec, 0x0f, 0x00, 0x00, 0xd4, 0x0f, 0x00, 0x00,
  0x3c, 0x00, 0x00, 0x00, 0x04, 0x00, 0x00, 0x00, 0x01, 0x00, 0x00, 0x00,
  0x0c, 0x00, 0x00, 0x00, 0x08, 0x00, 0x0c, 0x00, 0x04, 0x00, 0x08, 0x00,
  0x08, 0x00, 0x00, 0x00, 0x08, 0x00, 0x00, 0x00, 0x16, 0x00, 0x00, 0x00,
  0x13, 0x00, 0x00, 0x00, 0x6d, 0x69, 0x6e, 0x5f, 0x72, 0x75, 0x6e, 0x74,
  0x69, 0x6d, 0x65, 0x5f, 0x76, 0x65, 0x72, 0x73, 0x69, 0x6f, 0x6e, 0x00,
  0x17, 0x00, 0x00, 0x00, 0x8c, 0x0f, 0x00, 0x00, 0x6c, 0x0f, 0x00, 0x00,
  0x4c, 0x0f, 0x00, 0x00, 0x2c, 0x0f, 0x00, 0x00, 0x14, 0x0f, 0x00, 0x00,
  0xdc, 0x0e, 0x00, 0x00, 0xb8, 0x0e, 0x00, 0x00, 0xcc, 0x08, 0x00, 0x00,
  0xc4, 0x08, 0x00, 0x00, 0x3c, 0x08, 0x00, 0x00, 0x8c, 0x00, 0x00, 0x00,
  0x6c, 0x00, 0x00, 0x00, 0x64, 0x00, 0x00, 0x00, 0x5c, 0x00, 0x00, 0x00,
  0x54, 0x00, 0x00, 0x00, 0x4c, 0x00, 0x00, 0x00, 0x44, 0x00, 0x00, 0x00,
  0x3c, 0x00, 0x00, 0x00, 0x34, 0x00, 0x00, 0x00, 0x2c, 0x00, 0x00, 0x00,
  0x24, 0x00, 0x00, 0x00, 0x1c, 0x00, 0x00, 0x00, 0x04, 0x00, 0x00, 0x00,
  0xb6, 0xed, 0xff, 0xff, 0x04, 0x00, 0x00, 0x00, 0x05, 0x00, 0x00, 0x00,
  0x31, 0x2e, 0x35, 0x2e, 0x30, 0x00, 0x00, 0x00, 0x84, 0xdf, 0xff, 0xff,
  0x88, 0xdf, 0xff, 0xff, 0x8c, 0xdf, 0xff, 0xff, 0x90, 0xdf, 0xff, 0xff,
  0x94, 0xdf, 0xff, 0xff, 0x98, 0xdf, 0xff, 0xff, 0x9c, 0xdf, 0xff, 0xff,
  0xa0, 0xdf, 0xff, 0xff, 0xa4, 0xdf, 0xff, 0xff, 0xa8, 0xdf, 0xff, 0xff,
  0xf2, 0xed, 0xff, 0xff, 0x04, 0x00, 0x00, 0x00, 0x10, 0x00, 0x00, 0x00,
  0x01, 0x00, 0x00, 0x00, 0x01, 0x00, 0x00, 0x00, 0x31, 0x00, 0x00, 0x00,
  0x0d, 0x00, 0x00, 0x00, 0x0e, 0xee, 0xff, 0xff, 0x04, 0x00, 0x00, 0x00,
  0x9e, 0x07, 0x00, 0x00, 0xb5, 0xbe, 0xfa, 0x59, 0x97, 0xfa, 0x0d, 0x13,
  0xb6, 0x46, 0x69, 0xb8, 0x4a, 0xfb, 0xa7, 0x30, 0xc0, 0x10, 0x35, 0x25,
  0xb2, 0xe8, 0x4b, 0x57, 0xe1, 0x10, 0xfe, 0xc3, 0x2f, 0x5c, 0x24, 0x20,
  0xca, 0x81, 0x43, 0xaa, 0x15, 0xcb, 0xe0, 0xa4, 0xfe, 0xfc, 0xd3, 0xab,
  0x41, 0xdc, 0x9e, 0xc1, 0xec, 0xcf, 0x6e, 0x92, 0x0b, 0x3f, 0x2d, 0xb1,
  0xdb, 0x41, 0x21, 0x2a, 0x58, 0x04, 0x3d, 0x15, 0x09, 0x0a, 0x41, 0xcc,
  0x09, 0x4e, 0x5d, 0x58, 0xdd, 0xee, 0xbf, 0xc5, 0x15, 0x38, 0x4b, 0xbb,
  0xe3, 0x2b, 0xb7, 0x35, 0xce, 0x54, 0x40, 0x13, 0x5c, 0xea, 0x34, 0xc7,
  0xbe, 0xf6, 0x98, 0x81, 0x82, 0xe9, 0xfe, 0x78, 0x5d, 0x76, 0xd9, 0x67,
  0x9a, 0x4d, 0xe6, 0x38, 0x0f, 0x3b, 0xbe, 0xd6, 0xbb, 0xbf, 0x53, 0x28,
  0xc3, 0x42, 0xd8, 0xb0, 0x1b, 0xb0, 0xe4, 0x59, 0xc9, 0x52, 0x4d, 0xbc,
  0xaa, 0xfe, 0xd3, 0x59, 0x3d, 0x2c, 0x94, 0xc9, 0x36, 0x02, 0xb6, 0x62,
  0x82, 0x1f, 0x77, 0xc1, 0xfd, 0x72, 0xb2, 0xee, 0xaa, 0x7f, 0xce, 0xef,
  0x49, 0x91, 0x15, 0x1b, 0xa3, 0x01, 0x07, 0x32, 0xf5, 0x19, 0x78, 0x42,
  0xe1, 0xdd, 0x36, 0x48, 0x24, 0x1c, 0x36, 0xda, 0x0f, 0xf2, 0xb4, 0x6e,
  0x74, 0x84, 0xd5, 0xd1, 0x44, 0x31, 0x97, 0x29, 0xd6, 0x56, 0x53, 0x3f,
  0x43, 0xe7, 0xdc, 0x4f, 0xd4, 0x21, 0x5f, 0x9c, 0x15, 0x39, 0x14, 0xca,
  0xd7, 0x47, 0x70, 0x10, 0xc5, 0xb9, 0xd3, 0x6c, 0x5e, 0xa8, 0x31, 0xfd,
  0x67, 0xc3, 0x42, 0x18, 0x77, 0xaa, 0x41, 0x2c, 0xd6, 0x11, 0xcd, 0xf1,
  0xe3, 0xcd, 0xbd, 0x37, 0x7f, 0xcc, 0xe8, 0x8b, 0x46, 0x22, 0xb9, 0x96,
  0xfc, 0x40, 0x0e, 0xd9, 0x28, 0x40, 0x67, 0xfe, 0x13, 0xb3, 0x35, 0xd8,
  0x5c, 0xcb, 0x4f, 0x40, 0x3b, 0xbc, 0xcf, 0x05, 0x3d, 0x35, 0x23, 0xbe,
  0x0b, 0x9d, 0x44, 0x1d, 0x8c, 0x34, 0x37, 0xab, 0x06, 0xe7, 0x0c, 0xb3,
  0x13, 0xd2, 0xd6, 0xd0, 0xfa, 0xf7, 0x43, 0xf1, 0xec, 0xff, 0x46, 0x55,
  0x1f, 0x10, 0xd8, 0xf4, 0xcb, 0xb8, 0xfb, 0x56, 0x44, 0xfa, 0xa8, 0x4f,
  0x53, 0xc4, 0xc0, 0x43, 0xac, 0x34, 0xdb, 0xa2, 0x32, 0x67, 0x81, 0x4a,
  0xec, 0x09, 0x0c, 0x2e, 0x01, 0x02, 0x31, 0xce, 0x29, 0x52, 0xdd, 0xaf,
  0xcb, 0x6d, 0xe9, 0x41, 0xaf, 0x50, 0x70, 0xe8, 0xe4, 0x16, 0xba, 0x8c,
  0xb9, 0x60, 0xd4, 0x1f, 0x11, 0x56, 0x67, 0x9d, 0x2c, 0xa7, 0xc1, 0xb4,
  0x09, 0x4f, 0xbd, 0x61, 0x60, 0x0e, 0x3a, 0xe1, 0x59, 0x4e, 0xee, 0x3b,
  0x84, 0xe4, 0x4a, 0x01, 0x27, 0xf8, 0x4a, 0xca, 0xfd, 0xec, 0xe0, 0x1d,
  0x07, 0x5d, 0xae, 0xb5, 0x3d, 0xb4, 0xad, 0x81, 0xc0, 0x40, 0x6a, 0x32,
  0x46, 0x74, 0x98, 0x08, 0x51, 0x0e, 0xf8, 0x23, 0x38, 0x38, 0xb7, 0x6a,
  0xc1, 0x06, 0x13, 0xb3, 0x33, 0x15, 0xa5, 0x81, 0x10, 0x4b, 0x12, 0xff,
  0xfb, 0xc8, 0x46, 0x55, 0x34, 0x77, 0x4c, 0xeb, 0xf4, 0x11, 0x0a, 0xb9,
  0xcb, 0x11, 0x96, 0xb8, 0x0e, 0x42, 0x3a, 0x2e, 0xfd, 0xe3, 0xa2, 0x26,
  0x30, 0xef, 0x13, 0xcb, 0xd9, 0xf3, 0x1a, 0x1b, 0xeb, 0xb8, 0xec, 0xfa,
  0xb2, 0x44, 0x44, 0x74, 0x19, 0x2e, 0x55, 0x45, 0x4c, 0x22, 0xc3, 0x6f,
  0x7e, 0xcf, 0x5d, 0xd0, 0xfa, 0xdf, 0x56, 0x27, 0x59, 0xb6, 0xf3, 0xa0,
  0xdf, 0xfe, 0x10, 0xf3, 0x50, 0xbe, 0x4e, 0xf2, 0xf4, 0x1b, 0x56, 0xaa,
  0x1b, 0xdf, 0x9d, 0x81, 0xf7, 0x16, 0xb3, 0x51, 0x44, 0x5e, 0x4e, 0x32,
  0xbe, 0x0a, 0xd2, 0x46, 0xd3, 0x77, 0x14, 0xff, 0xee, 0x3b, 0x60, 0x26,
  0xe9, 0xc0, 0x40, 0xd3, 0xac, 0x25, 0xb0, 0x50, 0xa4, 0x66, 0xc7, 0xbd,
  0xe0, 0x97, 0xb4, 0x98, 0xbf, 0x9c, 0x4e, 0x8c, 0x13, 0xd9, 0x86, 0x58,
  0xec, 0xbe, 0x94, 0x94, 0x09, 0x00, 0xbb, 0xd7, 0x4d, 0xdf, 0xcc, 0xcd,
  0xd8, 0xa1, 0x17, 0x15, 0xd1, 0x2e, 0x2d, 0x2b, 0xe5, 0xdc, 0x02, 0xda,
  0x9f, 0xd4, 0x03, 0x9a, 0xb0, 0x17, 0xbc, 0xb9, 0xeb, 0xa9, 0x21, 0x81,
  0xf6, 0xdd, 0x75, 0x47, 0x84, 0x59, 0x9c, 0x32, 0x2b, 0xa1, 0x67, 0xc3,
  0x4a, 0xd6, 0xf3, 0xc4, 0x2c, 0xd9, 0x28, 0xc3, 0x3e, 0x5d, 0xe1, 0x13,
  0xd8, 0xfe, 0x46, 0x3e, 0x21, 0xee, 0xa4, 0xfe, 0xf1, 0xcd, 0xdf, 0xe0,
  0x0d, 0x37, 0x0c, 0xc5, 0x4d, 0x53, 0x51, 0xc5, 0xb7, 0xc6, 0xc8, 0xcc,
  0x34, 0xfa, 0xd6, 0x59, 0xc1, 0x36, 0x2c, 0xaf, 0xf7, 0xfa, 0x8b, 0x55,
  0xcc, 0x57, 0x0b, 0xc4, 0x38, 0xde, 0xae, 0xb6, 0xaa, 0x6e, 0x2d, 0x0f,
  0x38, 0xce, 0xeb, 0x11, 0x3a, 0x45, 0x68, 0xbf, 0xe1, 0x81, 0x78, 0xea,
  0xb3, 0x9e, 0xfa, 0xc3, 0x3a, 0x11, 0xa0, 0xda, 0xcc, 0x02, 0x2d, 0x9c,
  0x3b, 0xbd, 0x09, 0x35, 0xac, 0xe5, 0xfc, 0x45, 0x1d, 0xd3, 0xbe, 0xa8,
  0x33, 0xe1, 0x5f, 0x16, 0xf6, 0xce, 0xe9, 0x35, 0xec, 0x7f, 0x6f, 0xa2,
  0x44, 0x39, 0xe3, 0x24, 0xcd, 0x5c, 0x32, 0xf3, 0x54, 0xfa, 0xd2, 0xe5,
  0x9d, 0xed, 0x4d, 0x0d, 0xcd, 0xb3, 0xc1, 0xf2, 0xc3, 0x61, 0x2a, 0x52,
  0x70, 0x34, 0xb9, 0xd7, 0xd8, 0x54, 0x4d, 0x07, 0xe9, 0xca, 0x50, 0x46,
  0x05, 0xf2, 0x4f, 0x22, 0xaf, 0x61, 0xd6, 0x03, 0xcc, 0x2a, 0x9a, 0x47,
  0xf8, 0xcb, 0xc6, 0x49, 0x2f, 0x65, 0x01, 0xa9, 0x81, 0xcc, 0x4e, 0x60,
  0x59, 0xd3, 0x0d, 0xa2, 0xbb, 0x11, 0xfa, 0xed, 0x62, 0xff, 0xe2, 0x59,
  0x9f, 0x3b, 0xac, 0xcd, 0xd1, 0x13, 0xbf, 0x41, 0x3c, 0x45, 0x30, 0x09,
  0x24, 0x04, 0x98, 0xbb, 0x3a, 0xce, 0xa0, 0x12, 0x97, 0x4d, 0xa8, 0xfb,
  0xad, 0xce, 0x4f, 0xf7, 0x4f, 0x8d, 0xb6, 0x2a, 0x19, 0xc7, 0x4a, 0xf9,
  0xa4, 0x42, 0xaf, 0x0f, 0xb3, 0x6a, 0xc7, 0x08, 0xc5, 0x13, 0x35, 0xa6,
  0x4f, 0x9e, 0x5c, 0x21, 0xea, 0xc6, 0x7f, 0xd4, 0x06, 0xff, 0xd4, 0xd3,
  0xd3, 0x62, 0xc8, 0xbc, 0x67, 0x4b, 0xd9, 0x75, 0x8b, 0x81, 0x13, 0xae,
  0x73, 0x1f, 0xb7, 0x10, 0x0b, 0xe3, 0x5b, 0xc4, 0xea, 0x0d, 0xe8, 0x48,
  0xcd, 0x0e, 0xc8, 0x42, 0x41, 0x96, 0x15, 0x48, 0x97, 0x12, 0x90, 0x42,
  0x2d, 0x2f, 0x25, 0x42, 0xb9, 0x2e, 0x16, 0x10, 0xdc, 0x1f, 0x8b, 0xdc,
  0xe6, 0x9e, 0xf8, 0x24, 0x0b, 0x9b, 0x0c, 0x25, 0x43, 0x4e, 0x98, 0x9a,
  0xd5, 0x33, 0xb9, 0xfc, 0xb8, 0xe8, 0x6d, 0xc8, 0x60, 0x53, 0x50, 0x7f,
  0xb5, 0xda, 0xda, 0x04, 0x22, 0x2f, 0x98, 0x4c, 0xe3, 0xfa, 0x07, 0xab,
  0x23, 0xe2, 0x35, 0xc8, 0x11, 0x3b, 0x59, 0xd2, 0xd1, 0xf4, 0xdc, 0xdb,
  0x8b, 0x2b, 0xce, 0xab, 0xdd, 0x6d, 0x38, 0x33, 0xde, 0xe2, 0x9d, 0x82,
  0xe5, 0xd0, 0xd5, 0x26, 0x1d, 0x14, 0x55, 0x5f, 0x0d, 0x0e, 0x0c, 0xb9,
  0x3c, 0xdc, 0x1a, 0xb7, 0xd5, 0x98, 0x40, 0xaf, 0x00, 0x4d, 0x44, 0x34,
  0x04, 0xbf, 0xf9, 0x4a, 0x04, 0x0f, 0x8a, 0xdb, 0xf9, 0x0f, 0x38, 0xeb,
  0x9b, 0x0a, 0x3d, 0x39, 0x3d, 0x20, 0xf7, 0xde, 0x9f, 0xce, 0xe7, 0xdd,
  0x2c, 0x63, 0x34, 0x18, 0x92, 0xfc, 0x81, 0xba, 0xc5, 0x0c, 0x3c, 0xa9,
  0x15, 0x5f, 0xca, 0xca, 0x46, 0xb5, 0x40, 0x40, 0xcc, 0xdf, 0xde, 0xd9,
  0xfd, 0x32, 0x1e, 0x83, 0x11, 0x3f, 0x4e, 0xf3, 0x78, 0x72, 0x09, 0x4c,
  0xed, 0x33, 0x60, 0xdb, 0xec, 0x35, 0xd1, 0x11, 0x32, 0xc6, 0x23, 0x39,
  0x47, 0xce, 0xe3, 0xcc, 0xfe, 0xf4, 0xcd, 0x1b, 0xd9, 0x5c, 0x63, 0xae,
  0x92, 0x55, 0x05, 0xcc, 0xeb, 0x2c, 0xdd, 0xa3, 0xa2, 0xd3, 0xfb, 0x81,
  0xb6, 0xeb, 0x17, 0x31, 0xe2, 0xd9, 0x16, 0xa4, 0xd6, 0x69, 0x46, 0x28,
  0x97, 0x1d, 0x81, 0x91, 0x38, 0xb6, 0x1e, 0xda, 0x16, 0xc9, 0x51, 0xde,
  0x12, 0x0b, 0x47, 0xe8, 0xa1, 0xf7, 0x11, 0x60, 0x59, 0x1b, 0x6f, 0xde,
  0xea, 0xb6, 0xec, 0x1c, 0xaf, 0xfe, 0x7b, 0x9c, 0xf8, 0xe2, 0x6b, 0x50,
  0x5a, 0xd4, 0x93, 0x28, 0x3c, 0x2c, 0x75, 0x08, 0x29, 0xdd, 0xbb, 0xff,
  0x82, 0xf7, 0x3b, 0x08, 0x59, 0xcb, 0xa9, 0x9f, 0x5e, 0x03, 0x70, 0x1d,
  0xd8, 0x22, 0xcd, 0xf9, 0xb9, 0xc0, 0xea, 0xdc, 0xf2, 0x5b, 0x47, 0x69,
  0x3b, 0x4f, 0xc4, 0x06, 0x2b, 0x60, 0x18, 0x1d, 0x9f, 0xb5, 0xc7, 0x59,
  0x4c, 0xf9, 0x5e, 0x3c, 0x5f, 0x5e, 0x01, 0xd9, 0xb3, 0x4b, 0x2d, 0x4e,
  0x1a, 0xcd, 0x26, 0x0c, 0x43, 0x81, 0x2d, 0x49, 0xfa, 0x31, 0x37, 0x97,
  0x0c, 0x53, 0x3e, 0xb2, 0x5c, 0x0a, 0xa0, 0x5a, 0xc9, 0x30, 0xc1, 0x3d,
  0x7a, 0x30, 0x06, 0x23, 0xe6, 0x7a, 0x70, 0x8d, 0x4f, 0xe0, 0x9b, 0xed,
  0xac, 0xd8, 0xab, 0xa1, 0xe6, 0xf3, 0x33, 0xce, 0x1f, 0x24, 0x1c, 0x97,
  0x3c, 0xa8, 0x31, 0xec, 0x7b, 0x40, 0x30, 0x81, 0xbc, 0xbf, 0x3f, 0xa7,
  0x3a, 0x24, 0x1d, 0xda, 0xa5, 0x6d, 0x9d, 0x0d, 0x5c, 0xcd, 0x0b, 0xba,
  0xaa, 0x3c, 0x48, 0xd2, 0x52, 0xcd, 0x9d, 0x27, 0x1f, 0xef, 0xdb, 0xad,
  0xd9, 0x2b, 0x24, 0xd7, 0x11, 0x27, 0xe0, 0xf1, 0x49, 0x76, 0xcb, 0x0e,
  0x06, 0x1f, 0x4f, 0x18, 0x40, 0x52, 0x51, 0x3a, 0xc3, 0x7c, 0x50, 0x81,
  0xe6, 0x32, 0x54, 0x4b, 0xea, 0xed, 0xe7, 0x42, 0x04, 0xf5, 0x07, 0xd2,
  0xdb, 0x4a, 0x5c, 0xf4, 0xc5, 0x99, 0x13, 0x1f, 0x5f, 0xc4, 0x49, 0x7a,
  0x4c, 0xa3, 0xc4, 0xf1, 0x29, 0x3b, 0x31, 0xda, 0xe0, 0x46, 0x08, 0x95,
  0x01, 0x71, 0xf1, 0xce, 0x33, 0xa8, 0xfd, 0x1d, 0xd1, 0x97, 0xd8, 0xce,
  0x87, 0x33, 0x62, 0x3a, 0x4d, 0xd1, 0x6a, 0x52, 0xab, 0xdc, 0x6d, 0x99,
  0xd5, 0x88, 0xf6, 0xbc, 0x8f, 0x98, 0x33, 0x23, 0x57, 0xa4, 0x6d, 0x03,
  0x2d, 0x0d, 0xbe, 0x4c, 0x26, 0x60, 0x81, 0x10, 0x3a, 0x27, 0xd2, 0x7e,
  0xca, 0x25, 0xca, 0xb3, 0x5d, 0x89, 0x67, 0xcb, 0x06, 0x33, 0x46, 0x91,
  0x54, 0x45, 0x0f, 0x9b, 0x03, 0x5f, 0xde, 0x3e, 0x89, 0x2e, 0x1d, 0xc9,
  0x15, 0x0c, 0xfd, 0x26, 0x70, 0x55, 0x68, 0x49, 0x53, 0xbc, 0xca, 0xda,
  0x43, 0x18, 0x2f, 0xa6, 0x09, 0xbf, 0xd7, 0xcb, 0x45, 0x4d, 0xcc, 0xaa,
  0xba, 0x46, 0x54, 0xc8, 0xe5, 0xf6, 0xb0, 0x19, 0x13, 0xda, 0xd5, 0x90,
  0x4f, 0xf9, 0x50, 0xea, 0x34, 0x03, 0x3e, 0xe7, 0x3e, 0xc9, 0x2d, 0x81,
  0xbd, 0xb2, 0xd5, 0xbc, 0x31, 0x9d, 0xbb, 0x9c, 0x57, 0xe1, 0x50, 0xea,
  0xa3, 0x13, 0x22, 0x93, 0x94, 0x48, 0x83, 0x20, 0xe7, 0xd8, 0xe7, 0xd0,
  0xdc, 0xc3, 0x01, 0x6e, 0xbe, 0xe4, 0x82, 0x8b, 0xcd, 0xe8, 0x56, 0xae,
  0x01, 0xe5, 0x41, 0xdc, 0xc0, 0xc8, 0xe6, 0xc3, 0x6a, 0x29, 0xf3, 0xe8,
  0x39, 0xef, 0xac, 0xc6, 0x15, 0xaf, 0x41, 0x42, 0x29, 0x34, 0xb2, 0x31,
  0x38, 0x40, 0x29, 0x74, 0x3a, 0xba, 0x4d, 0x8d, 0xb3, 0x09, 0xf2, 0x13,
  0x9b, 0xd9, 0x52, 0xd2, 0xc8, 0xc9, 0x06, 0xb0, 0x7f, 0x60, 0xe4, 0xfa,
  0xe3, 0x1b, 0xf7, 0xf3, 0x22, 0x0f, 0x59, 0x48, 0x16, 0xd4, 0xc0, 0x29,
  0xa4, 0x7f, 0xd2, 0x7c, 0x38, 0x69, 0xe0, 0x34, 0x2b, 0xd5, 0x4f, 0x0b,
  0x27, 0x18, 0xfb, 0x30, 0xd3, 0x49, 0x14, 0x3b, 0x92, 0xc1, 0xcd, 0xd9,
  0x2f, 0x3f, 0xde, 0xb1, 0x52, 0xc4, 0x30, 0xa4, 0x8a, 0x0d, 0xa4, 0xb9,
  0x7c, 0xb8, 0x01, 0x51, 0x1c, 0xb1, 0xfb, 0x48, 0x5f, 0x6f, 0x64, 0xc1,
  0xc4, 0x34, 0x06, 0xc0, 0x3f, 0x64, 0x1b, 0xc1, 0xcb, 0x18, 0x38, 0xfc,
  0xf7, 0x2a, 0xe1, 0xba, 0xfe, 0x02, 0xd7, 0x30, 0xd8, 0xa5, 0x76, 0x1e,
  0xc8, 0x42, 0xc5, 0x8b, 0x31, 0xa9, 0x19, 0xb4, 0xf2, 0xe0, 0x40, 0x81,
  0x2e, 0xa4, 0x07, 0x36, 0xe1, 0xd2, 0x3f, 0x39, 0x32, 0xe1, 0x59, 0x0a,
  0xc5, 0xb7, 0xcd, 0xe3, 0x03, 0xe1, 0x24, 0xf6, 0x7b, 0x3a, 0x44, 0x20,
  0xe4, 0xfb, 0xc5, 0xc1, 0x24, 0x44, 0x7a, 0x06, 0x41, 0xad, 0xda, 0x03,
  0x65, 0x32, 0xf8, 0xbc, 0x1f, 0xc6, 0x7d, 0xd4, 0x52, 0x7f, 0x17, 0xea,
  0xa4, 0x29, 0x2b, 0x4b, 0x15, 0x64, 0xa2, 0xf0, 0xf8, 0x35, 0x11, 0xec,
  0xb3, 0x2f, 0xda, 0x8d, 0x6a, 0xf7, 0xf7, 0xe7, 0x39, 0x41, 0xde, 0x51,
  0x89, 0xf8, 0xa8, 0x19, 0x38, 0x37, 0xba, 0x82, 0xfa, 0xa2, 0xcb, 0x18,
  0xdb, 0x25, 0x16, 0x27, 0xb9, 0x6d, 0xbf, 0x9d, 0x5f, 0x10, 0x00, 0xaf,
  0xfe, 0x5e, 0x52, 0x52, 0xd6, 0xe2, 0xe2, 0x03, 0xc3, 0xa6, 0xb1, 0xa6,
  0xe1, 0x3e, 0xbf, 0xc9, 0x6c, 0x4d, 0x12, 0xea, 0x12, 0x79, 0xc8, 0xe6,
  0xc8, 0x1f, 0x5a, 0xbf, 0x53, 0x7f, 0xb6, 0x30, 0x53, 0x36, 0x3b, 0x59,
  0x59, 0x29, 0x30, 0xa8, 0x22, 0xce, 0xfe, 0xe2, 0xb5, 0xc7, 0xd9, 0x0b,
  0x92, 0xc4, 0x26, 0x13, 0x17, 0x1c, 0x0f, 0x3f, 0xe3, 0x88, 0xbb, 0x0a,
  0x7e, 0xe9, 0x04, 0x4e, 0xa1, 0xd7, 0xba, 0x56, 0xaa, 0x9e, 0xc8, 0x8a,
  0xd3, 0x54, 0x06, 0xe0, 0xef, 0x0e, 0xfd, 0xf3, 0xb0, 0xac, 0xa3, 0x9f,
  0x95, 0x3f, 0x42, 0x41, 0x1a, 0x1e, 0xa5, 0x1d, 0xbd, 0x09, 0x37, 0xb6,
  0x4f, 0x12, 0x5b, 0x03, 0xb7, 0xe1, 0x74, 0x19, 0xd9, 0xbf, 0xad, 0x49,
  0x46, 0xa1, 0xd9, 0xce, 0x16, 0x85, 0x3c, 0x6c, 0x4f, 0xfa, 0xc3, 0x51,
  0x4f, 0xdf, 0x81, 0x0f, 0x76, 0xc8, 0xb4, 0xa5, 0xbd, 0xca, 0xba, 0xbd,
  0x40, 0x5c, 0x54, 0x2a, 0xf3, 0xe0, 0xa9, 0xba, 0xd4, 0xde, 0x22, 0x08,
  0xf8, 0x37, 0x01, 0x6d, 0x65, 0x5d, 0x40, 0xfb, 0x33, 0x64, 0x45, 0x37,
  0x15, 0x0d, 0x2e, 0xa3, 0x48, 0x6a, 0x5e, 0x18, 0x50, 0xf4, 0x13, 0xd7,
  0x11, 0x1b, 0x4d, 0x28, 0x62, 0x7f, 0x61, 0x30, 0x01, 0xae, 0x24, 0xc7,
  0x64, 0x4b, 0x17, 0xaf, 0xf3, 0xbe, 0x48, 0x91, 0xf8, 0xf9, 0x21, 0x24,
  0xf1, 0x0c, 0x0e, 0x61, 0xb0, 0x1a, 0x51, 0x9c, 0xf0, 0xc9, 0x73, 0x15,
  0x4a, 0xf4, 0x72, 0x2a, 0x92, 0xad, 0xe1, 0x01, 0x8e, 0xa2, 0xec, 0x7f,
  0x96, 0x07, 0x6e, 0x0c, 0x2a, 0x57, 0x4c, 0xb0, 0xce, 0x33, 0xb8, 0x38,
  0x69, 0x6d, 0x4f, 0xd0, 0xe5, 0x96, 0x4e, 0x3c, 0xdb, 0xe8, 0x09, 0x51,
  0x51, 0xcd, 0x2b, 0xf5, 0xbe, 0x0d, 0xae, 0x5c, 0x28, 0xb3, 0xf7, 0xbf,
  0xff, 0x39, 0xf9, 0x40, 0x35, 0x1a, 0x4c, 0xd3, 0x6a, 0xad, 0x00, 0x00,
  0xba, 0xf5, 0xff, 0xff, 0x04, 0x00, 0x00, 0x00, 0x78, 0x00, 0x00, 0x00,
  0xa0, 0xff, 0xff, 0xff, 0xf1, 0xff, 0xff, 0xff, 0x8e, 0x00, 0x00, 0x00,
  0x14, 0x01, 0x00, 0x00, 0x3d, 0xff, 0xff, 0xff, 0x71, 0xff, 0xff, 0xff,
  0x76, 0xff, 0xff, 0xff, 0x6e, 0xff, 0xff, 0xff, 0xaa, 0x01, 0x00, 0x00,
  0x5a, 0x00, 0x00, 0x00, 0xb6, 0x00, 0x00, 0x00, 0xcd, 0xff, 0xff, 0xff,
  0xe2, 0xff, 0xff, 0xff, 0x57, 0xff, 0xff, 0xff, 0x31, 0xff, 0xff, 0xff,
  0xbc, 0xff, 0xff, 0xff, 0xdf, 0xfe, 0xff, 0xff, 0x67, 0x01, 0x00, 0x00,
  0x37, 0xfe, 0xff, 0xff, 0x29, 0x01, 0x00, 0x00, 0xef, 0x00, 0x00, 0x00,
  0x62, 0x00, 0x00, 0x00, 0x33, 0xff, 0xff, 0xff, 0x87, 0xff, 0xff, 0xff,
  0xdc, 0xfe, 0xff, 0xff, 0x99, 0x01, 0x00, 0x00, 0x80, 0x00, 0x00, 0x00,
  0x93, 0x00, 0x00, 0x00, 0xa4, 0x01, 0x00, 0x00, 0x58, 0xff, 0xff, 0xff,
  0xf8, 0xe7, 0xff, 0xff, 0x42, 0xf6, 0xff, 0xff, 0x04, 0x00, 0x00, 0x00,
  0xdc, 0x05, 0x00, 0x00, 0xaa, 0xf4, 0x19, 0x10, 0x59, 0xb2, 0xde, 0x1d,
  0x9b, 0x8f, 0xdd, 0xba, 0x5d, 0x5a, 0xdf, 0xf6, 0x93, 0x0d, 0xde, 0x02,
  0x4c, 0xd0, 0x9f, 0xf3, 0xbe, 0x97, 0x65, 0xc0, 0xa0, 0xc7, 0xba, 0xcf,
  0x23, 0xc3, 0x66, 0x33, 0x70, 0x0a, 0x4b, 0x12, 0xdf, 0x5d, 0x8a, 0x59,
  0xc1, 0x36, 0x31, 0x15, 0xb1, 0xaf, 0x8f, 0x09, 0x61, 0xe0, 0xdb, 0xae,
  0x09, 0xfa, 0x42, 0xc7, 0x4a, 0xdf, 0x94, 0x92, 0xa8, 0x81, 0x98, 0x77,
  0xc7, 0x67, 0x32, 0xe8, 0x41, 0x9d, 0xe8, 0x4a, 0xfb, 0x0d, 0xce, 0x12,
  0x96, 0xb2, 0x14, 0x63, 0x8d, 0x6e, 0x0e, 0xe5, 0x51, 0x28, 0x20, 0x4d,
  0x42, 0xe6, 0xd9, 0xd3, 0xff, 0x8d, 0xd5, 0x86, 0x96, 0xd2, 0xa5, 0x23,
  0xf3, 0x25, 0x66, 0x6c, 0xeb, 0xac, 0xb6, 0x1f, 0x1c, 0xa9, 0xaf, 0xab,
  0x38, 0x8a, 0x0f, 0x75, 0x57, 0x46, 0x23, 0xdb, 0x10, 0x8c, 0xce, 0x55,
  0x3b, 0x73, 0x13, 0xbf, 0x36, 0x50, 0x14, 0x41, 0x48, 0x32, 0x59, 0x9c,
  0x56, 0x29, 0xbd, 0x8b, 0x2b, 0x55, 0x47, 0x1b, 0xa7, 0x3c, 0xbb, 0x19,
  0xb7, 0x29, 0x1c, 0xfb, 0x54, 0xc4, 0xdc, 0xa2, 0x04, 0xa6, 0xcf, 0xde,
  0x9d, 0x99, 0xc9, 0x44, 0x31, 0x9a, 0x1d, 0x60, 0x03, 0x44, 0xe7, 0x6f,
  0xdf, 0x5e, 0xeb, 0x3a, 0xb1, 0x0f, 0x3b, 0x57, 0xf9, 0x21, 0x3a, 0xc6,
  0xc9, 0x28, 0x88, 0x1e, 0x1d, 0x16, 0x71, 0x5c, 0x07, 0x5c, 0x0c, 0x11,
  0x59, 0xcf, 0x12, 0x6a, 0x32, 0x6b, 0x06, 0x1f, 0x22, 0xcd, 0x6d, 0x2c,
  0xbc, 0xdc, 0xcc, 0x3c, 0x6e, 0xbf, 0xe0, 0x1e, 0xa5, 0x6b, 0xae, 0x26,
  0x7f, 0x57, 0x3b, 0x84, 0x23, 0x55, 0x4a, 0xd7, 0x6c, 0x12, 0xdd, 0x54,
  0x28, 0xa3, 0xba, 0x84, 0xf2, 0x65, 0xc0, 0x45, 0xc3, 0x52, 0x05, 0xdd,
  0x54, 0x0d, 0x1f, 0xd2, 0xa3, 0x35, 0x36, 0x02, 0x45, 0xb2, 0x9a, 0xf0,
  0x49, 0x02, 0x72, 0x57, 0x01, 0x58, 0xf1, 0x96, 0xc9, 0x54, 0xc0, 0x89,
  0x2e, 0x3a, 0x33, 0x41, 0xff, 0xcd, 0x5e, 0x24, 0x41, 0x24, 0x3a, 0x5c,
  0xfd, 0x4d, 0xcc, 0xe1, 0x32, 0x3b, 0xd2, 0xbe, 0x9b, 0xc2, 0x3d, 0x77,
  0x6b, 0xd3, 0xb0, 0xb4, 0xb7, 0x2b, 0x38, 0xd7, 0x3a, 0x16, 0x37, 0xdf,
  0x54, 0x56, 0xe7, 0xcc, 0x32, 0xbd, 0x21, 0xf7, 0xf9, 0x67, 0xbb, 0xf2,
  0x64, 0xd4, 0xec, 0x42, 0x3d, 0x48, 0xd5, 0xbd, 0x00, 0x6c, 0x3d, 0x9c,
  0x38, 0x16, 0xe2, 0x4b, 0x76, 0x5a, 0xf8, 0xea, 0x5e, 0x47, 0x16, 0x56,
  0x3a, 0xd8, 0x17, 0xad, 0x0f, 0xe9, 0xd9, 0x26, 0x22, 0xe0, 0x4c, 0x20,
  0xf0, 0xa1, 0x00, 0xea, 0xda, 0xa9, 0x3b, 0x66, 0x4a, 0x48, 0x25, 0x97,
  0x3e, 0x4f, 0x62, 0xc9, 0x4e, 0xc0, 0x11, 0x2a, 0x5f, 0x07, 0x25, 0x12,
  0x65, 0x70, 0xed, 0x2d, 0x2e, 0xfd, 0xc3, 0x3e, 0xfa, 0x69, 0x4b, 0x15,
  0xc4, 0xb9, 0x7c, 0xb7, 0x14, 0xd1, 0x6c, 0xbd, 0xfb, 0x42, 0x7f, 0xd8,
  0x57, 0x34, 0xcf, 0x0e, 0xb2, 0x6a, 0x67, 0xb8, 0x2f, 0xa6, 0x67, 0xb9,
  0x13, 0x19, 0x2f, 0x1e, 0x17, 0x0b, 0xf7, 0xf5, 0x14, 0x09, 0xdb, 0x4f,
  0x3f, 0x36, 0xba, 0x20, 0x38, 0xba, 0x57, 0x06, 0x30, 0x71, 0x60, 0x27,
  0xcb, 0x9d, 0x2d, 0x35, 0x54, 0x91, 0xca, 0xce, 0x48, 0xd3, 0xb5, 0xee,
  0xa7, 0x96, 0xe5, 0x2b, 0x4b, 0x57, 0x6e, 0xa6, 0x53, 0x2e, 0xf5, 0xbb,
  0xe5, 0x75, 0x11, 0x1c, 0x1d, 0xaa, 0xb7, 0x60, 0x5e, 0x76, 0xed, 0x9c,
  0x87, 0x6b, 0x18, 0x2d, 0x32, 0x13, 0xbd, 0xe9, 0x10, 0xa3, 0x5a, 0x4b,
  0x19, 0x9b, 0x93, 0xf0, 0x97, 0x62, 0x43, 0x85, 0xb3, 0x0e, 0xf5, 0x65,
  0xc9, 0xbb, 0xbc, 0xf6, 0x29, 0x14, 0x1f, 0x96, 0x1c, 0xed, 0xfc, 0xd0,
  0x14, 0xf7, 0xcc, 0x79, 0x84, 0x79, 0xd5, 0x20, 0xb7, 0x50, 0xe8, 0x00,
  0x14, 0x6e, 0x20, 0xb3, 0xa7, 0xf9, 0x42, 0xf2, 0x1f, 0x9c, 0x49, 0x70,
  0xfc, 0x31, 0x8c, 0xf8, 0x9b, 0x53, 0xe7, 0xff, 0x6a, 0xb1, 0xb1, 0x74,
  0xd0, 0xa1, 0xa9, 0xf3, 0xbb, 0x5f, 0x36, 0x0a, 0x72, 0x37, 0x42, 0x16,
  0xd2, 0x37, 0x5e, 0xea, 0x23, 0xe7, 0x49, 0xb1, 0x81, 0x4b, 0x6d, 0x7c,
  0xca, 0x5e, 0xbf, 0xa4, 0xd9, 0x97, 0xc7, 0xaa, 0xe9, 0xa3, 0x3a, 0x78,
  0x3e, 0x52, 0x56, 0x97, 0xae, 0x57, 0xe4, 0x00, 0x79, 0x66, 0x1a, 0x3b,
  0x22, 0x9e, 0x0f, 0x47, 0x16, 0x0f, 0xb4, 0x94, 0x8f, 0x67, 0xd4, 0x02,
  0xb4, 0x79, 0x00, 0x90, 0x87, 0x2a, 0xed, 0x1d, 0x13, 0x96, 0x74, 0x28,
  0x50, 0x6c, 0x32, 0x6f, 0x78, 0xc3, 0x1a, 0xad, 0x32, 0xf3, 0x4a, 0x93,
  0xba, 0xed, 0xab, 0x2e, 0x01, 0xe8, 0x61, 0x42, 0x2f, 0x09, 0xaa, 0x77,
  0x3e, 0x8e, 0xc8, 0xca, 0x9b, 0x4d, 0x3a, 0x4a, 0x3c, 0xf6, 0x6d, 0xc3,
  0xc2, 0xcd, 0x4f, 0xc0, 0x26, 0x77, 0x8e, 0xfc, 0xd3, 0x42, 0x4b, 0x51,
  0x90, 0xe8, 0x58, 0x28, 0xdc, 0x8a, 0x46, 0x50, 0x4f, 0xf0, 0x09, 0xbd,
  0x14, 0xfa, 0x6d, 0x32, 0xf6, 0x60, 0x11, 0x17, 0x02, 0x45, 0xc0, 0x0d,
  0xc5, 0xa3, 0xef, 0x07, 0x9e, 0x3f, 0xa8, 0xe5, 0xb1, 0x1f, 0x81, 0x26,
  0x58, 0x05, 0xa8, 0xc2, 0x3b, 0x41, 0x1f, 0x98, 0xdf, 0x0b, 0xd1, 0xc5,
  0x77, 0x52, 0x59, 0x42, 0x9c, 0x3f, 0xb1, 0x3b, 0x1d, 0x08, 0x39, 0xfe,
  0xde, 0x49, 0xc4, 0xfa, 0xd3, 0xb8, 0x1e, 0x29, 0xf3, 0x24, 0x2c, 0x8f,
  0x92, 0xe1, 0x9e, 0xe1, 0x4e, 0x2e, 0xe5, 0x32, 0xe1, 0xa5, 0x3f, 0x68,
  0x95, 0x00, 0xab, 0xe3, 0x02, 0xf5, 0x71, 0x91, 0x81, 0x70, 0xa2, 0x39,
  0xd8, 0x52, 0x9d, 0x00, 0x9c, 0x45, 0x40, 0x45, 0xfc, 0x10, 0xb6, 0x08,
  0x98, 0x97, 0x8b, 0xb6, 0x65, 0x60, 0x3e, 0xd3, 0xec, 0x51, 0x47, 0x5e,
  0x6e, 0xd7, 0x3e, 0x20, 0x21, 0x63, 0x12, 0x5f, 0x31, 0x57, 0xf1, 0x15,
  0xb3, 0x0c, 0xd3, 0x54, 0x74, 0x74, 0xce, 0xc4, 0xe0, 0x03, 0x5b, 0x14,
  0xb1, 0x96, 0xbc, 0x18, 0xdd, 0xd3, 0x26, 0x63, 0xe8, 0x0a, 0x09, 0x6c,
  0x97, 0x20, 0x15, 0x40, 0x01, 0x82, 0x0f, 0x16, 0xf8, 0xa5, 0xdd, 0x9f,
  0xbb, 0x16, 0xf2, 0x2f, 0xaf, 0x49, 0xdb, 0xe2, 0xe8, 0xfd, 0x48, 0x33,
  0xda, 0x5e, 0x41, 0xea, 0xb2, 0xa9, 0x08, 0xe3, 0x8a, 0x87, 0xea, 0x05,
  0xc0, 0x00, 0x5b, 0x61, 0xbd, 0x15, 0xc8, 0xbe, 0x3a, 0xd4, 0xd7, 0x1c,
  0xcc, 0xaf, 0x08, 0x20, 0xef, 0x1c, 0xde, 0x8a, 0x70, 0x70, 0xb9, 0xd4,
  0x54, 0x05, 0x9c, 0x26, 0x2d, 0xc9, 0x0e, 0x36, 0x23, 0x79, 0xfd, 0xcc,
  0x61, 0x4c, 0x49, 0xa0, 0x63, 0xda, 0x18, 0x5f, 0x4c, 0xe7, 0x13, 0x37,
  0x33, 0x68, 0xcf, 0x48, 0x9a, 0xf9, 0xf9, 0xff, 0x2f, 0xf0, 0x2c, 0xd3,
  0x6d, 0x2b, 0xb1, 0x43, 0x98, 0x47, 0x0c, 0xa5, 0x63, 0x46, 0x9b, 0xb7,
  0x53, 0x69, 0xde, 0xbe, 0x0d, 0x2e, 0x48, 0xa8, 0x18, 0xbf, 0x54, 0xf8,
  0xc2, 0x47, 0x69, 0x62, 0x18, 0x5c, 0x33, 0xb5, 0xa0, 0xcb, 0xb6, 0x47,
  0x45, 0xcd, 0x05, 0x4a, 0xaa, 0xcb, 0x1c, 0x3d, 0xa1, 0x35, 0x66, 0xdc,
  0x96, 0x4e, 0x07, 0x08, 0x3f, 0x1e, 0xf0, 0xef, 0xf8, 0x0a, 0x3c, 0xaf,
  0x1f, 0x72, 0x64, 0x92, 0xea, 0x9c, 0x39, 0xce, 0x7f, 0x2e, 0x2f, 0x1c,
  0x73, 0x2a, 0x2d, 0x14, 0x8f, 0xc4, 0x1a, 0xe0, 0xb3, 0xb2, 0x2e, 0xd4,
  0x1e, 0xa3, 0x67, 0x02, 0xe5, 0xaa, 0xcd, 0xc2, 0x12, 0x6c, 0xa1, 0xab,
  0xe9, 0xbd, 0xbf, 0x1e, 0xae, 0xd3, 0xbc, 0xfd, 0xb3, 0xd1, 0x0b, 0xce,
  0xc5, 0xc2, 0x04, 0x4e, 0xe3, 0xf0, 0x9f, 0x9d, 0x4a, 0xa4, 0x61, 0xbb,
  0x46, 0x71, 0xc3, 0x25, 0x7c, 0xa4, 0x07, 0xf5, 0xfb, 0x9c, 0xc8, 0x5b,
  0xdf, 0xae, 0xf0, 0xfa, 0xf1, 0x9c, 0x5f, 0x4a, 0x57, 0x6c, 0xec, 0x08,
  0xe4, 0xe1, 0xbc, 0x18, 0xd3, 0x41, 0x54, 0x3a, 0x4a, 0xb1, 0x95, 0x48,
  0x39, 0x02, 0xbc, 0x67, 0x1f, 0x3f, 0x52, 0xf3, 0xbf, 0xb0, 0xcd, 0x0c,
  0x02, 0x4f, 0x19, 0x01, 0xd2, 0x19, 0x9b, 0x62, 0xe1, 0xff, 0x02, 0x31,
  0x22, 0xfa, 0xff, 0x40, 0x6a, 0x30, 0x45, 0x2b, 0xf4, 0xfa, 0x53, 0x36,
  0x21, 0x37, 0x4e, 0xd9, 0xd8, 0xfa, 0x25, 0x09, 0x11, 0xdf, 0xfe, 0x5e,
  0x19, 0x51, 0x27, 0x06, 0xa7, 0x2a, 0x73, 0x4f, 0x56, 0xc8, 0x38, 0x5c,
  0xaf, 0x7f, 0x38, 0xdf, 0xca, 0x70, 0x57, 0xa1, 0x5b, 0xc3, 0xbd, 0xa9,
  0xcd, 0x63, 0xd9, 0x6c, 0xd7, 0x95, 0x06, 0x19, 0x42, 0x50, 0xef, 0x20,
  0x63, 0x32, 0xe8, 0xe4, 0xe4, 0xd6, 0x71, 0x41, 0x9c, 0xda, 0xda, 0x1b,
  0xfb, 0x98, 0x03, 0xc0, 0xb5, 0x08, 0xed, 0x71, 0xe3, 0xb1, 0x26, 0xc3,
  0x65, 0x4e, 0xb8, 0x67, 0x99, 0x22, 0x43, 0x4d, 0xfe, 0xe2, 0xaa, 0xdc,
  0x7a, 0x19, 0xc3, 0x47, 0xb0, 0x4c, 0x09, 0x3c, 0x52, 0xff, 0x40, 0x98,
  0xec, 0xa5, 0x1a, 0x4b, 0x45, 0x76, 0xfe, 0x32, 0xa2, 0x68, 0xfe, 0xf9,
  0x81, 0x22, 0x32, 0x0b, 0x41, 0xe2, 0xfe, 0x4c, 0x52, 0xf3, 0x64, 0xc5,
  0xed, 0x25, 0x4c, 0xe5, 0x0c, 0xe5, 0xe9, 0xaf, 0xa6, 0x76, 0x08, 0xb0,
  0x13, 0xb4, 0xef, 0xd6, 0x16, 0xb4, 0x19, 0x75, 0x13, 0x9d, 0x02, 0x29,
  0xf3, 0x36, 0x0f, 0x07, 0xd5, 0x9c, 0xde, 0x3e, 0xe1, 0xea, 0x00, 0x00,
  0x2e, 0xa4, 0x97, 0xcd, 0xe5, 0xae, 0xad, 0xab, 0x21, 0xef, 0xd9, 0x2f,
  0xbe, 0xcc, 0x16, 0x41, 0xa9, 0x12, 0xac, 0x0b, 0x10, 0x32, 0xf8, 0x77,
  0xb7, 0x43, 0x49, 0xe2, 0xb8, 0x64, 0xe3, 0xcc, 0xb1, 0xee, 0xe1, 0x58,
  0x07, 0x54, 0xf5, 0x32, 0xd1, 0xb7, 0xec, 0x25, 0xce, 0x5c, 0xf4, 0x96,
  0x5e, 0xc7, 0xab, 0x2d, 0xb3, 0x6e, 0xb7, 0xaa, 0xb2, 0xf5, 0xe0, 0x04,
  0x57, 0x29, 0x22, 0xbc, 0xfd, 0xb9, 0x45, 0x45, 0x9f, 0xcd, 0xea, 0x01,
  0x1a, 0xcc, 0x2b, 0x32, 0x61, 0x59, 0x19, 0x40, 0xd3, 0x32, 0xeb, 0x0a,
  0x29, 0x5f, 0xbe, 0x4a, 0x45, 0xce, 0x54, 0xe5, 0xf5, 0x20, 0xce, 0xe5,
  0xad, 0x1c, 0x5d, 0x65, 0xe3, 0x5d, 0x34, 0x00, 0xb9, 0x61, 0xc6, 0x0f,
  0xcf, 0xa0, 0x2f, 0xaa, 0x00, 0xa5, 0x2c, 0x5d, 0x26, 0xe3, 0x1e, 0x12,
  0xb1, 0xfe, 0x44, 0xda, 0x58, 0x33, 0x31, 0x10, 0xca, 0xe5, 0xec, 0x62,
  0x38, 0xe6, 0x3c, 0xda, 0xff, 0xe0, 0x09, 0xde, 0x01, 0xd8, 0xbf, 0x20,
  0xd9, 0x7f, 0xf3, 0xee, 0xb0, 0xd0, 0xff, 0xdc, 0xe2, 0xf3, 0x41, 0x0d,
  0x5f, 0xb0, 0x63, 0xac, 0xa8, 0xea, 0x12, 0x6f, 0xe4, 0x38, 0x09, 0x37,
  0x9c, 0x96, 0x61, 0xb1, 0x35, 0x06, 0xf5, 0x0e, 0xe8, 0xca, 0x65, 0xce,
  0x0d, 0xee, 0x2e, 0xdc, 0xb9, 0x35, 0x92, 0x38, 0x39, 0x95, 0x49, 0x56,
  0x59, 0x52, 0x02, 0x4d, 0x3a, 0xee, 0x4c, 0x2d, 0x09, 0x0a, 0xbf, 0xd2,
  0x4a, 0xa1, 0x68, 0xa2, 0xdb, 0x55, 0xf9, 0xbb, 0xc5, 0xcd, 0xdf, 0x00,
  0xef, 0x20, 0xc5, 0xe6, 0x9b, 0x51, 0x2c, 0xeb, 0xfa, 0xe2, 0x51, 0xf0,
  0x0a, 0x39, 0x8d, 0x70, 0x2a, 0xfc, 0xff, 0xff, 0x04, 0x00, 0x00, 0x00,
  0x14, 0x00, 0x00, 0x00, 0xd9, 0x81, 0xfa, 0x89, 0x01, 0xa4, 0x41, 0x56,
  0xfc, 0x3d, 0x4b, 0x8b, 0xef, 0x6f, 0x6f, 0x4b, 0x35, 0xf7, 0x23, 0xf0,
  0x4a, 0xfc, 0xff, 0xff, 0x04, 0x00, 0x00, 0x00, 0x28, 0x00, 0x00, 0x00,
  0xbd, 0xfe, 0xff, 0xff, 0xc2, 0xfd, 0xff, 0xff, 0x6c, 0x04, 0x00, 0x00,
  0x01, 0xfe, 0xff, 0xff, 0x8b, 0xfe, 0xff, 0xff, 0xa5, 0xfe, 0xff, 0xff,
  0x7c, 0x01, 0x00, 0x00, 0x70, 0x02, 0x00, 0x00, 0x2f, 0xff, 0xff, 0xff,
  0x70, 0x03, 0x00, 0x00, 0x7e, 0xfc, 0xff, 0xff, 0x04, 0x00, 0x00, 0x00,
  0x08, 0x00, 0x00, 0x00, 0x8d, 0x00, 0x00, 0x00, 0x73, 0xff, 0xff, 0xff,
  0x92, 0xfc, 0xff, 0xff, 0x04, 0x00, 0x00, 0x00, 0x10, 0x00, 0x00, 0x00,
  0x01, 0x00, 0x00, 0x00, 0x2d, 0x00, 0x00, 0x00, 0x01, 0x00, 0x00, 0x00,
  0x1e, 0x00, 0x00, 0x00, 0xae, 0xfc, 0xff, 0xff, 0x04, 0x00, 0x00, 0x00,
  0x10, 0x00, 0x00, 0x00, 0x01, 0x00, 0x00, 0x00, 0x01, 0x00, 0x00, 0x00,
  0x09, 0x00, 0x00, 0x00, 0x1e, 0x00, 0x00, 0x00, 0xca, 0xfc, 0xff, 0xff,
  0x04, 0x00, 0x00, 0x00, 0x10, 0x00, 0x00, 0x00, 0x01, 0x00, 0x00, 0x00,
  0x05, 0x00, 0x00, 0x00, 0x01, 0x00, 0x00, 0x00, 0x0a, 0x00, 0x00, 0x00,
  0xa0, 0xee, 0xff, 0xff, 0x0f, 0x00, 0x00, 0x00, 0x54, 0x4f, 0x43, 0x4f,
  0x20, 0x43, 0x6f, 0x6e, 0x76, 0x65, 0x72, 0x74, 0x65, 0x64, 0x2e, 0x00,
  0x01, 0x00, 0x00, 0x00, 0x04, 0x00, 0x00, 0x00, 0xd8, 0xed, 0xff, 0xff,
  0x68, 0x03, 0x00, 0x00, 0x5c, 0x03, 0x00, 0x00, 0x50, 0x03, 0x00, 0x00,
  0x04, 0x00, 0x00, 0x00, 0x0c, 0x00, 0x00, 0x00, 0x24, 0x03, 0x00, 0x00,
  0xc4, 0x02, 0x00, 0x00, 0x68, 0x02, 0x00, 0x00, 0x0c, 0x02, 0x00, 0x00,
  0xac, 0x01, 0x00, 0x00, 0x60, 0x01, 0x00, 0x00, 0x20, 0x01, 0x00, 0x00,
  0xd4, 0x00, 0x00, 0x00, 0x94, 0x00, 0x00, 0x00, 0x5c, 0x00, 0x00, 0x00,
  0x28, 0x00, 0x00, 0x00, 0x04, 0x00, 0x00, 0x00, 0x16, 0xfd, 0xff, 0xff,
  0x06, 0x00, 0x00, 0x00, 0x10, 0x00, 0x00, 0x00, 0x04, 0x00, 0x00, 0x00,
  0x01, 0x00, 0x00, 0x00, 0x16, 0x00, 0x00, 0x00, 0x01, 0x00, 0x00, 0x00,
  0x00, 0x00, 0x00, 0x00, 0x46, 0xfe, 0xff, 0xff, 0x00, 0x00, 0x00, 0x09,
  0x04, 0x00, 0x00, 0x00, 0x1c, 0x00, 0x00, 0x00, 0x10, 0x00, 0x00, 0x00,
  0x04, 0x00, 0x00, 0x00, 0x86, 0xfd, 0xff, 0xff, 0x00, 0x00, 0x80, 0x3f,
  0x01, 0x00, 0x00, 0x00, 0x00, 0x00, 0x00, 0x00, 0x01, 0x00, 0x00, 0x00,
  0x11, 0x00, 0x00, 0x00, 0x76, 0xfe, 0xff, 0xff, 0x00, 0x00, 0x00, 0x08,
  0x01, 0x00, 0x00, 0x00, 0x18, 0x00, 0x00, 0x00, 0x0c, 0x00, 0x00, 0x00,
  0x04, 0x00, 0x00, 0x00, 0x70, 0xef, 0xff, 0xff, 0x01, 0x00, 0x00, 0x00,
  0x11, 0x00, 0x00, 0x00, 0x03, 0x00, 0x00, 0x00, 0x10, 0x00, 0x00, 0x00,
  0x12, 0x00, 0x00, 0x00, 0x13, 0x00, 0x00, 0x00, 0xaa, 0xfe, 0xff, 0xff,
  0x00, 0x00, 0x00, 0x05, 0x02, 0x00, 0x00, 0x00, 0x28, 0x00, 0x00, 0x00,
  0x1c, 0x00, 0x00, 0x00, 0x04, 0x00, 0x00, 0x00, 0xf6, 0xfe, 0xff, 0xff,
  0x01, 0x00, 0x00, 0x00, 0x05, 0x00, 0x00, 0x00, 0x01, 0x00, 0x00, 0x00,
  0x05, 0x00, 0x00, 0x00, 0x01, 0x00, 0x00, 0x00, 0x10, 0x00, 0x00, 0x00,
  0x01, 0x00, 0x00, 0x00, 0x0e, 0x00, 0x00, 0x00, 0xe6, 0xfe, 0xff, 0xff,
  0x00, 0x00, 0x00, 0x11, 0x03, 0x00, 0x00, 0x00, 0x30, 0x00, 0x00, 0x00,
  0x24, 0x00, 0x00, 0x00, 0x04, 0x00, 0x00, 0x00, 0x26, 0xfe, 0xff, 0xff,
  0x04, 0x00, 0x00, 0x00, 0x04, 0x00, 0x00, 0x00, 0x01, 0x00, 0x00, 0x00,
  0x05, 0x00, 0x00, 0x00, 0x01, 0x00, 0x00, 0x00, 0x0a, 0x00, 0x00, 0x00,
  0x01, 0x00, 0x00, 0x00, 0x0e, 0x00, 0x00, 0x00, 0x02, 0x00, 0x00, 0x00,
  0x09, 0x00, 0x00, 0x00, 0x0f, 0x00, 0x00, 0x00, 0xd6, 0xfe, 0xff, 0xff,
  0x00, 0x00, 0x00, 0x01, 0x24, 0x00, 0x00, 0x00, 0x18, 0x00, 0x00, 0x00,
  0x04, 0x00, 0x00, 0x00, 0xc8, 0xfe, 0xff, 0xff, 0x00, 0x00, 0x01, 0x01,
  0x01, 0x00, 0x00, 0x00, 0x01, 0x00, 0x00, 0x00, 0x01, 0x00, 0x00, 0x00,
  0x09, 0x00, 0x00, 0x00, 0x03, 0x00, 0x00, 0x00, 0x06, 0x00, 0x00, 0x00,
  0x08, 0x00, 0x00, 0x00, 0x0a, 0x00, 0x00, 0x00, 0x6a, 0xff, 0xff, 0xff,
  0x00, 0x00, 0x00, 0x11, 0x03, 0x00, 0x00, 0x00, 0x30, 0x00, 0x00, 0x00,
  0x24, 0x00, 0x00, 0x00, 0x04, 0x00, 0x00, 0x00, 0xaa, 0xfe, 0xff, 0xff,
  0x04, 0x00, 0x00, 0x00, 0x04, 0x00, 0x00, 0x00, 0x01, 0x00, 0x00, 0x00,
  0x01, 0x00, 0x00, 0x00, 0x09, 0x00, 0x00, 0x00, 0x1e, 0x00, 0x00, 0x00,
  0x01, 0x00, 0x00, 0x00, 0x06, 0x00, 0x00, 0x00, 0x02, 0x00, 0x00, 0x00,
  0x0d, 0x00, 0x00, 0x00, 0x07, 0x00, 0x00, 0x00, 0x02, 0xff, 0xff, 0xff,
  0x00, 0x00, 0x00, 0x05, 0x02, 0x00, 0x00, 0x00, 0x38, 0x00, 0x00, 0x00,
  0x2c, 0x00, 0x00, 0x00, 0x14, 0x00, 0x00, 0x00, 0x00, 0x00, 0x0e, 0x00,
  0x14, 0x00, 0x00, 0x00, 0x04, 0x00, 0x08, 0x00, 0x0c, 0x00, 0x10, 0x00,
  0x0e, 0x00, 0x00, 0x00, 0x01, 0x00, 0x00, 0x00, 0x05, 0x00, 0x00, 0x00,
  0x01, 0x00, 0x00, 0x00, 0x05, 0x00, 0x00, 0x00, 0x01, 0x00, 0x00, 0x00,
  0x0d, 0x00, 0x00, 0x00, 0x01, 0x00, 0x00, 0x00, 0x0b, 0x00, 0x00, 0x00,
  0x00, 0x00, 0x0e, 0x00, 0x18, 0x00, 0x08, 0x00, 0x0c, 0x00, 0x10, 0x00,
  0x07, 0x00, 0x14, 0x00, 0x0e, 0x00, 0x00, 0x00, 0x00, 0x00, 0x00, 0x11,
  0x03, 0x00, 0x00, 0x00, 0x30, 0x00, 0x00, 0x00, 0x24, 0x00, 0x00, 0x00,
  0x04, 0x00, 0x00, 0x00, 0x4e, 0xff, 0xff, 0xff, 0x04, 0x00, 0x00, 0x00,
  0x04, 0x00, 0x00, 0x00, 0x01, 0x00, 0x00, 0x00, 0x2d, 0x00, 0x00, 0x00,
  0x01, 0x00, 0x00, 0x00, 0x1e, 0x00, 0x00, 0x00, 0x01, 0x00, 0x00, 0x00,
  0x0b, 0x00, 0x00, 0x00, 0x02, 0x00, 0x00, 0x00, 0x01, 0x00, 0x00, 0x00,
  0x0c, 0x00, 0x00, 0x00, 0x00, 0x00, 0x0e, 0x00, 0x14, 0x00, 0x00, 0x00,
  0x08, 0x00, 0x0c, 0x00, 0x07, 0x00, 0x10, 0x00, 0x0e, 0x00, 0x00, 0x00,
  0x00, 0x00, 0x00, 0x01, 0x30, 0x00, 0x00, 0x00, 0x24, 0x00, 0x00, 0x00,
  0x10, 0x00, 0x00, 0x00, 0x0c, 0x00, 0x10, 0x00, 0x06, 0x00, 0x08, 0x00,
  0x0c, 0x00, 0x07, 0x00, 0x0c, 0x00, 0x00, 0x00, 0x00, 0x00, 0x01, 0x01,
  0x01, 0x00, 0x00, 0x00, 0x01, 0x00, 0x00, 0x00, 0x01, 0x00, 0x00, 0x00,
  0x01, 0x00, 0x00, 0x00, 0x03, 0x00, 0x00, 0x00, 0x02, 0x00, 0x00, 0x00,
  0x04, 0x00, 0x00, 0x00, 0x05, 0x00, 0x00, 0x00, 0x00, 0x00, 0x0e, 0x00,
  0x1a, 0x00, 0x08, 0x00, 0x0c, 0x00, 0x10, 0x00, 0x07, 0x00, 0x14, 0x00,
  0x0e, 0x00, 0x00, 0x00, 0x00, 0x00, 0x00, 0x11, 0x03, 0x00, 0x00, 0x00,
  0x38, 0x00, 0x00, 0x00, 0x2c, 0x00, 0x00, 0x00, 0x0c, 0x00, 0x00, 0x00,
  0x00, 0x00, 0x06, 0x00, 0x08, 0x00, 0x04, 0x00, 0x06, 0x00, 0x00, 0x00,
  0x04, 0x00, 0x00, 0x00, 0x04, 0x00, 0x00, 0x00, 0x01, 0x00, 0x00, 0x00,
  0x01, 0x00, 0x00, 0x00, 0x31, 0x00, 0x00, 0x00, 0x0d, 0x00, 0x00, 0x00,
  0x01, 0x00, 0x00, 0x00, 0x02, 0x00, 0x00, 0x00, 0x02, 0x00, 0x00, 0x00,
  0x14, 0x00, 0x00, 0x00, 0x03, 0x00, 0x00, 0x00, 0x00, 0x00, 0x0a, 0x00,
  0x10, 0x00, 0x04, 0x00, 0x08, 0x00, 0x0c, 0x00, 0x0a, 0x00, 0x00, 0x00,
  0x05, 0x00, 0x00, 0x00, 0x10, 0x00, 0x00, 0x00, 0x04, 0x00, 0x00, 0x00,
  0x01, 0x00, 0x00, 0x00, 0x14, 0x00, 0x00, 0x00, 0x01, 0x00, 0x00, 0x00,
  0x15, 0x00, 0x00, 0x00, 0x01, 0x00, 0x00, 0x00, 0x16, 0x00, 0x00, 0x00,
  0x01, 0x00, 0x00, 0x00, 0x15, 0x00, 0x00, 0x00, 0x17, 0x00, 0x00, 0x00,
  0x40, 0x0f, 0x00, 0x00, 0x9c, 0x0e, 0x00, 0x00, 0x0c, 0x0e, 0x00, 0x00,
  0xac, 0x0d, 0x00, 0x00, 0xd4, 0x0a, 0x00, 0x00, 0x10, 0x09, 0x00, 0x00,
  0x7c, 0x08, 0x00, 0x00, 0x20, 0x08, 0x00, 0x00, 0xd4, 0x06, 0x00, 0x00,
  0x40, 0x06, 0x00, 0x00, 0x6c, 0x05, 0x00, 0x00, 0xd8, 0x04, 0x00, 0x00,
  0x7c, 0x04, 0x00, 0x00, 0xe8, 0x03, 0x00, 0x00, 0x54, 0x03, 0x00, 0x00,
  0xf8, 0x02, 0x00, 0x00, 0x64, 0x02, 0x00, 0x00, 0xe0, 0x01, 0x00, 0x00,
  0x44, 0x01, 0x00, 0x00, 0xd8, 0x00, 0x00, 0x00, 0x64, 0x00, 0x00, 0x00,
  0x3c, 0x00, 0x00, 0x00, 0x04, 0x00, 0x00, 0x00, 0xd8, 0xff, 0xff, 0xff,
  0x18, 0x00, 0x00, 0x00, 0x04, 0x00, 0x00, 0x00, 0x08, 0x00, 0x00, 0x00,
  0x49, 0x64, 0x65, 0x6e, 0x74, 0x69, 0x74, 0x79, 0x00, 0x00, 0x00, 0x00,
  0x02, 0x00, 0x00, 0x00, 0x01, 0x00, 0x00, 0x00, 0x02, 0x00, 0x00, 0x00,
  0x0c, 0x00, 0x0c, 0x00, 0x04, 0x00, 0x00, 0x00, 0x00, 0x00, 0x08, 0x00,
  0x0c, 0x00, 0x00, 0x00, 0x14, 0x00, 0x00, 0x00, 0x04, 0x00, 0x00, 0x00,
  0x07, 0x00, 0x00, 0x00, 0x78, 0x5f, 0x69, 0x6e, 0x70, 0x75, 0x74, 0x00,
  0x02, 0x00, 0x00, 0x00, 0x01, 0x00, 0x00, 0x00, 0x7d, 0x02, 0x00, 0x00,
  0x82, 0xf1, 0xff, 0xff, 0x00, 0x00, 0x00, 0x09, 0x5c, 0x00, 0x00, 0x00,
  0x0f, 0x00, 0x00, 0x00, 0x40, 0x00, 0x00, 0x00, 0x04, 0x00, 0x00, 0x00,
  0x14, 0xf2, 0xff, 0xff, 0x2c, 0x00, 0x00, 0x00, 0x20, 0x00, 0x00, 0x00,
  0x14, 0x00, 0x00, 0x00, 0x04, 0x00, 0x00, 0x00, 0x01, 0x00, 0x00, 0x00,
  0xe7, 0xff, 0xff, 0xff, 0xff, 0xff, 0xff, 0xff, 0x01, 0x00, 0x00, 0x00,
  0x7b, 0xa7, 0x2c, 0x3d, 0x01, 0x00, 0x00, 0x00, 0x9a, 0x95, 0xcd, 0x40,
  0x01, 0x00, 0x00, 0x00, 0x0e, 0x60, 0x8a, 0xc0, 0x0c, 0x00, 0x00, 0x00,
  0x78, 0x5f, 0x69, 0x6e, 0x70, 0x75, 0x74, 0x5f, 0x69, 0x6e, 0x74, 0x38,
  0x00, 0x00, 0x00, 0x00, 0x02, 0x00, 0x00, 0x00, 0x01, 0x00, 0x00, 0x00,
  0x7d, 0x02, 0x00, 0x00, 0xf2, 0xf1, 0xff, 0xff, 0x00, 0x00, 0x00, 0x02,
  0x58, 0x00, 0x00, 0x00, 0x04, 0x00, 0x00, 0x00, 0x2c, 0x00, 0x00, 0x00,
  0x04, 0x00, 0x00, 0x00, 0xe4, 0xf1, 0xff, 0xff, 0x18, 0x00, 0x00, 0x00,
  0x04, 0x00, 0x00, 0x00, 0x01, 0x00, 0x00, 0x00, 0x00, 0x00, 0x00, 0x00,
  0x00, 0x00, 0x00, 0x00, 0x00, 0x00, 0x00, 0x00, 0x01, 0x00, 0x00, 0x00,
  0x80, 0xbe, 0x1d, 0x39, 0x1d, 0x00, 0x00, 0x00, 0x73, 0x65, 0x71, 0x75,
  0x65, 0x6e, 0x74, 0x69, 0x61, 0x6c, 0x2f, 0x79, 0x5f, 0x70, 0x72, 0x65,
  0x64, 0x2f, 0x4d, 0x61, 0x74, 0x4d, 0x75, 0x6c, 0x5f, 0x62, 0x69, 0x61,
  0x73, 0x00, 0x00, 0x00, 0x01, 0x00, 0x00, 0x00, 0x02, 0x00, 0x00, 0x00,
  0x5a, 0xf2, 0xff, 0xff, 0x00, 0x00, 0x00, 0x09, 0x84, 0x00, 0x00, 0x00,
  0x06, 0x00, 0x00, 0x00, 0x44, 0x00, 0x00, 0x00, 0x04, 0x00, 0x00, 0x00,
  0xec, 0xf2, 0xff, 0xff, 0x30, 0x00, 0x00, 0x00, 0x24, 0x00, 0x00, 0x00,
  0x18, 0x00, 0x00, 0x00, 0x04, 0x00, 0x00, 0x00, 0x01, 0x00, 0x00, 0x00,
  0x00, 0x00, 0x00, 0x00, 0x00, 0x00, 0x00, 0x00, 0x00, 0x00, 0x00, 0x00,
  0x01, 0x00, 0x00, 0x00, 0x7f, 0x14, 0xb2, 0x3b, 0x01, 0x00, 0x00, 0x00,
  0x57, 0xa1, 0x1a, 0x3f, 0x01, 0x00, 0x00, 0x00, 0x56, 0xb0, 0x30, 0xbf,
  0x31, 0x00, 0x00, 0x00, 0x73, 0x65, 0x71, 0x75, 0x65, 0x6e, 0x74, 0x69,
  0x61, 0x6c, 0x2f, 0x79, 0x5f, 0x70, 0x72, 0x65, 0x64, 0x2f, 0x4d, 0x61,
  0x74, 0x4d, 0x75, 0x6c, 0x2f, 0x52, 0x65, 0x61, 0x64, 0x56, 0x61, 0x72,
  0x69, 0x61, 0x62, 0x6c, 0x65, 0x4f, 0x70, 0x2f, 0x74, 0x72, 0x61, 0x6e,
  0x73, 0x70, 0x6f, 0x73, 0x65, 0x00, 0x00, 0x00, 0x02, 0x00, 0x00, 0x00,
  0x02, 0x00, 0x00, 0x00, 0x0a, 0x00, 0x00, 0x00, 0xf2, 0xf2, 0xff, 0xff,
  0x00, 0x00, 0x00, 0x09, 0x6c, 0x00, 0x00, 0x00, 0x10, 0x00, 0x00, 0x00,
  0x44, 0x00, 0x00, 0x00, 0x04, 0x00, 0x00, 0x00, 0x84, 0xf3, 0xff, 0xff,
  0x30, 0x00, 0x00, 0x00, 0x24, 0x00, 0x00, 0x00, 0x18, 0x00, 0x00, 0x00,
  0x04, 0x00, 0x00, 0x00, 0x01, 0x00, 0x00, 0x00, 0xfd, 0xff, 0xff, 0xff,
  0xff, 0xff, 0xff, 0xff, 0x00, 0x00, 0x00, 0x00, 0x01, 0x00, 0x00, 0x00,
  0x86, 0xed, 0x92, 0x3c, 0x01, 0x00, 0x00, 0x00, 0x85, 0xea, 0x14, 0x40,
  0x01, 0x00, 0x00, 0x00, 0xaa, 0xca, 0x0f, 0xc0, 0x19, 0x00, 0x00, 0x00,
  0x73, 0x65, 0x71, 0x75, 0x65, 0x6e, 0x74, 0x69, 0x61, 0x6c, 0x2f, 0x79,
  0x5f, 0x70, 0x72, 0x65, 0x64, 0x2f, 0x42, 0x69, 0x61, 0x73, 0x41, 0x64,
  0x64, 0x00, 0x00, 0x00, 0x02, 0x00, 0x00, 0x00, 0x01, 0x00, 0x00, 0x00,
  0x02, 0x00, 0x00, 0x00, 0x72, 0xf3, 0xff, 0xff, 0x00, 0x00, 0x00, 0x09,
  0x74, 0x00, 0x00, 0x00, 0x0d, 0x00, 0x00, 0x00, 0x44, 0x00, 0x00, 0x00,
  0x04, 0x00, 0x00, 0x00, 0x04, 0xf4, 0xff, 0xff, 0x30, 0x00, 0x00, 0x00,
  0x24, 0x00, 0x00, 0x00, 0x18, 0x00, 0x00, 0x00, 0x04, 0x00, 0x00, 0x00,
  0x01, 0x00, 0x00, 0x00, 0x80, 0xff, 0xff, 0xff, 0xff, 0xff, 0xff, 0xff,
  0x00, 0x00, 0x00, 0x00, 0x01, 0x00, 0x00, 0x00, 0x17, 0xc4, 0xe2, 0x3c,
  0x01, 0x00, 0x00, 0x00, 0x53, 0xe1, 0xe1, 0x40, 0x01, 0x00, 0x00, 0x00,
  0x00, 0x00, 0x00, 0x00, 0x22, 0x00, 0x00, 0x00, 0x73, 0x65, 0x71, 0x75,
  0x65, 0x6e, 0x74, 0x69, 0x61, 0x6c, 0x2f, 0x6d, 0x61, 0x78, 0x5f, 0x70,
  0x6f, 0x6f, 0x6c, 0x69, 0x6e, 0x67, 0x31, 0x64, 0x5f, 0x31, 0x2f, 0x4d,
  0x61, 0x78, 0x50, 0x6f, 0x6f, 0x6c, 0x00, 0x00, 0x04, 0x00, 0x00, 0x00,
  0x01, 0x00, 0x00, 0x00, 0x01, 0x00, 0x00, 0x00, 0x01, 0x00, 0x00, 0x00,
  0x0a, 0x00, 0x00, 0x00, 0x02, 0xf4, 0xff, 0xff, 0x00, 0x00, 0x00, 0x02,
  0x44, 0x00, 0x00, 0x00, 0x01, 0x00, 0x00, 0x00, 0x0c, 0x00, 0x00, 0x00,
  0x04, 0x00, 0x00, 0x00, 0x7c, 0xf5, 0xff, 0xff, 0x2b, 0x00, 0x00, 0x00,
  0x73, 0x65, 0x71, 0x75, 0x65, 0x6e, 0x74, 0x69, 0x61, 0x6c, 0x2f, 0x6d,
  0x61, 0x78, 0x5f, 0x70, 0x6f, 0x6f, 0x6c, 0x69, 0x6e, 0x67, 0x31, 0x64,
  0x5f, 0x31, 0x2f, 0x45, 0x78, 0x70, 0x61, 0x6e, 0x64, 0x44, 0x69, 0x6d,
  0x73, 0x2f, 0x64, 0x69, 0x6d, 0x5f, 0x30, 0x00, 0x02, 0x00, 0x00, 0x00,
  0x01, 0x00, 0x00, 0x00, 0x04, 0x00, 0x00, 0x00, 0x5a, 0xf4, 0xff, 0xff,
  0x00, 0x00, 0x00, 0x09, 0x74, 0x00, 0x00, 0x00, 0x0e, 0x00, 0x00, 0x00,
  0x40, 0x00, 0x00, 0x00, 0x04, 0x00, 0x00, 0x00, 0xec, 0xf4, 0xff, 0xff,
  0x2c, 0x00, 0x00, 0x00, 0x20, 0x00, 0x00, 0x00, 0x14, 0x00, 0x00, 0x00,
  0x04, 0x00, 0x00, 0x00, 0x01, 0x00, 0x00, 0x00, 0x80, 0xff, 0xff, 0xff,
  0xff, 0xff, 0xff, 0xff, 0x01, 0x00, 0x00, 0x00, 0x17, 0xc4, 0xe2, 0x3c,
  0x01, 0x00, 0x00, 0x00, 0x53, 0xe1, 0xe1, 0x40, 0x01, 0x00, 0x00, 0x00,
  0x00, 0x00, 0x00, 0x00, 0x25, 0x00, 0x00, 0x00, 0x73, 0x65, 0x71, 0x75,
  0x65, 0x6e, 0x74, 0x69, 0x61, 0x6c, 0x2f, 0x6d, 0x61, 0x78, 0x5f, 0x70,
  0x6f, 0x6f, 0x6c, 0x69, 0x6e, 0x67, 0x31, 0x64, 0x5f, 0x31, 0x2f, 0x45,
  0x78, 0x70, 0x61, 0x6e, 0x64, 0x44, 0x69, 0x6d, 0x73, 0x00, 0x00, 0x00,
  0x04, 0x00, 0x00, 0x00, 0x01, 0x00, 0x00, 0x00, 0x05, 0x00, 0x00, 0x00,
  0x01, 0x00, 0x00, 0x00, 0x0a, 0x00, 0x00, 0x00, 0xea, 0xf4, 0xff, 0xff,
  0x00, 0x00, 0x00, 0x09, 0x74, 0x00, 0x00, 0x00, 0x13, 0x00, 0x00, 0x00,
  0x44, 0x00, 0x00, 0x00, 0x04, 0x00, 0x00, 0x00, 0x7c, 0xf5, 0xff, 0xff,
  0x30, 0x00, 0x00, 0x00, 0x24, 0x00, 0x00, 0x00, 0x18, 0x00, 0x00, 0x00,
  0x04, 0x00, 0x00, 0x00, 0x01, 0x00, 0x00, 0x00, 0x80, 0xff, 0xff, 0xff,
  0xff, 0xff, 0xff, 0xff, 0x00, 0x00, 0x00, 0x00, 0x01, 0x00, 0x00, 0x00,
  0x39, 0x56, 0xb9, 0x3c, 0x01, 0x00, 0x00, 0x00, 0xe3, 0x9c, 0xb8, 0x40,
  0x01, 0x00, 0x00, 0x00, 0x00, 0x00, 0x00, 0x00, 0x20, 0x00, 0x00, 0x00,
  0x73, 0x65, 0x71, 0x75, 0x65, 0x6e, 0x74, 0x69, 0x61, 0x6c, 0x2f, 0x6d,
  0x61, 0x78, 0x5f, 0x70, 0x6f, 0x6f, 0x6c, 0x69, 0x6e, 0x67, 0x31, 0x64,
  0x2f, 0x4d, 0x61, 0x78, 0x50, 0x6f, 0x6f, 0x6c, 0x00, 0x00, 0x00, 0x00,
  0x04, 0x00, 0x00, 0x00, 0x01, 0x00, 0x00, 0x00, 0x09, 0x00, 0x00, 0x00,
  0x01, 0x00, 0x00, 0x00, 0x1e, 0x00, 0x00, 0x00, 0x7a, 0xf5, 0xff, 0xff,
  0x00, 0x00, 0x00, 0x02, 0x44, 0x00, 0x00, 0x00, 0x03, 0x00, 0x00, 0x00,
  0x0c, 0x00, 0x00, 0x00, 0x04, 0x00, 0x00, 0x00, 0xf4, 0xf6, 0xff, 0xff,
  0x29, 0x00, 0x00, 0x00, 0x73, 0x65, 0x71, 0x75, 0x65, 0x6e, 0x74, 0x69,
  0x61, 0x6c, 0x2f, 0x6d, 0x61, 0x78, 0x5f, 0x70, 0x6f, 0x6f, 0x6c, 0x69,
  0x6e, 0x67, 0x31, 0x64, 0x2f, 0x45, 0x78, 0x70, 0x61, 0x6e, 0x64, 0x44,
  0x69, 0x6d, 0x73, 0x2f, 0x64, 0x69, 0x6d, 0x5f, 0x30, 0x00, 0x00, 0x00,
  0x02, 0x00, 0x00, 0x00, 0x01, 0x00, 0x00, 0x00, 0x04, 0x00, 0x00, 0x00,
  0xd2, 0xf5, 0xff, 0xff, 0x00, 0x00, 0x00, 0x09, 0x74, 0x00, 0x00, 0x00,
  0x11, 0x00, 0x00, 0x00, 0x44, 0x00, 0x00, 0x00, 0x04, 0x00, 0x00, 0x00,
  0x64, 0xf6, 0xff, 0xff, 0x30, 0x00, 0x00, 0x00, 0x24, 0x00, 0x00, 0x00,
  0x18, 0x00, 0x00, 0x00, 0x04, 0x00, 0x00, 0x00, 0x01, 0x00, 0x00, 0x00,
  0x80, 0xff, 0xff, 0xff, 0xff, 0xff, 0xff, 0xff, 0x00, 0x00, 0x00, 0x00,
  0x01, 0x00, 0x00, 0x00, 0x39, 0x56, 0xb9, 0x3c, 0x01, 0x00, 0x00, 0x00,
  0xe3, 0x9c, 0xb8, 0x40, 0x01, 0x00, 0x00, 0x00, 0x00, 0x00, 0x00, 0x00,
  0x23, 0x00, 0x00, 0x00, 0x73, 0x65, 0x71, 0x75, 0x65, 0x6e, 0x74, 0x69,
  0x61, 0x6c, 0x2f, 0x6d, 0x61, 0x78, 0x5f, 0x70, 0x6f, 0x6f, 0x6c, 0x69,
  0x6e, 0x67, 0x31, 0x64, 0x2f, 0x45, 0x78, 0x70, 0x61, 0x6e, 0x64, 0x44,
  0x69, 0x6d, 0x73, 0x00, 0x04, 0x00, 0x00, 0x00, 0x01, 0x00, 0x00, 0x00,
  0x2d, 0x00, 0x00, 0x00, 0x01, 0x00, 0x00, 0x00, 0x1e, 0x00, 0x00, 0x00,
  0x62, 0xf6, 0xff, 0xff, 0x00, 0x00, 0x00, 0x02, 0xc0, 0x00, 0x00, 0x00,
  0x05, 0x00, 0x00, 0x00, 0x94, 0x00, 0x00, 0x00, 0x04, 0x00, 0x00, 0x00,
  0x54, 0xf6, 0xff, 0xff, 0x5c, 0x00, 0x00, 0x00, 0x04, 0x00, 0x00, 0x00,
  0x0a, 0x00, 0x00, 0x00, 0x00, 0x00, 0x00, 0x00, 0x00, 0x00, 0x00, 0x00,
  0x00, 0x00, 0x00, 0x00, 0x00, 0x00, 0x00, 0x00, 0x00, 0x00, 0x00, 0x00,
  0x00, 0x00, 0x00, 0x00, 0x00, 0x00, 0x00, 0x00, 0x00, 0x00, 0x00, 0x00,
  0x00, 0x00, 0x00, 0x00, 0x00, 0x00, 0x00, 0x00, 0x00, 0x00, 0x00, 0x00,
  0x00, 0x00, 0x00, 0x00, 0x00, 0x00, 0x00, 0x00, 0x00, 0x00, 0x00, 0x00,
  0x00, 0x00, 0x00, 0x00, 0x00, 0x00, 0x00, 0x00, 0x00, 0x00, 0x00, 0x00,
  0x00, 0x00, 0x00, 0x00, 0x00, 0x00, 0x00, 0x00, 0x00, 0x00, 0x00, 0x00,
  0x0a, 0x00, 0x00, 0x00, 0xf5, 0x37, 0x06, 0x38, 0x8c, 0xa8, 0x06, 0x38,
  0xa2, 0x37, 0x26, 0x38, 0xf1, 0xc7, 0x04, 0x38, 0xe3, 0x74, 0x08, 0x38,
  0x18, 0x23, 0x0b, 0x38, 0xce, 0xa3, 0x0a, 0x38, 0x9c, 0x7b, 0x14, 0x38,
  0xe4, 0xb9, 0x10, 0x38, 0x3b, 0x14, 0x21, 0x38, 0x1f, 0x00, 0x00, 0x00,
  0x73, 0x65, 0x71, 0x75, 0x65, 0x6e, 0x74, 0x69, 0x61, 0x6c, 0x2f, 0x63,
  0x6f, 0x6e, 0x76, 0x31, 0x64, 0x5f, 0x31, 0x2f, 0x63, 0x6f, 0x6e, 0x76,
  0x31, 0x64, 0x5f, 0x62, 0x69, 0x61, 0x73, 0x00, 0x01, 0x00, 0x00, 0x00,
  0x0a, 0x00, 0x00, 0x00, 0x32, 0xf7, 0xff, 0xff, 0x00, 0x00, 0x00, 0x09,
  0x74, 0x00, 0x00, 0x00, 0x15, 0x00, 0x00, 0x00, 0x44, 0x00, 0x00, 0x00,
  0x04, 0x00, 0x00, 0x00, 0xc4, 0xf7, 0xff, 0xff, 0x30, 0x00, 0x00, 0x00,
  0x24, 0x00, 0x00, 0x00, 0x18, 0x00, 0x00, 0x00, 0x04, 0x00, 0x00, 0x00,
  0x01, 0x00, 0x00, 0x00, 0x80, 0xff, 0xff, 0xff, 0xff, 0xff, 0xff, 0xff,
  0x00, 0x00, 0x00, 0x00, 0x01, 0x00, 0x00, 0x00, 0x17, 0xc4, 0xe2, 0x3c,
  0x01, 0x00, 0x00, 0x00, 0x53, 0xe1, 0xe1, 0x40, 0x01, 0x00, 0x00, 0x00,
  0x00, 0x00, 0x00, 0x00, 0x22, 0x00, 0x00, 0x00, 0x73, 0x65, 0x71, 0x75,
  0x65, 0x6e, 0x74, 0x69, 0x61, 0x6c, 0x2f, 0x63, 0x6f, 0x6e, 0x76, 0x31,
  0x64, 0x5f, 0x31, 0x2f, 0x63, 0x6f, 0x6e, 0x76, 0x31, 0x64, 0x2f, 0x53,
  0x71, 0x75, 0x65, 0x65, 0x7a, 0x65, 0x00, 0x00, 0x04, 0x00, 0x00, 0x00,
  0x01, 0x00, 0x00, 0x00, 0x01, 0x00, 0x00, 0x00, 0x05, 0x00, 0x00, 0x00,
  0x0a, 0x00, 0x00, 0x00, 0xc2, 0xf7, 0xff, 0xff, 0x00, 0x00, 0x00, 0x09,
  0x2c, 0x01, 0x00, 0x00, 0x07, 0x00, 0x00, 0x00, 0xf8, 0x00, 0x00, 0x00,
  0x04, 0x00, 0x00, 0x00, 0x54, 0xf8, 0xff, 0xff, 0xc0, 0x00, 0x00, 0x00,
  0x90, 0x00, 0x00, 0x00, 0x60, 0x00, 0x00, 0x00, 0x04, 0x00, 0x00, 0x00,
  0x0a, 0x00, 0x00, 0x00, 0x00, 0x00, 0x00, 0x00, 0x00, 0x00, 0x00, 0x00,
  0x00, 0x00, 0x00, 0x00, 0x00, 0x00, 0x00, 0x00, 0x00, 0x00, 0x00, 0x00,
  0x00, 0x00, 0x00, 0x00, 0x00, 0x00, 0x00, 0x00, 0x00, 0x00, 0x00, 0x00,
  0x00, 0x00, 0x00, 0x00, 0x00, 0x00, 0x00, 0x00, 0x00, 0x00, 0x00, 0x00,
  0x00, 0x00, 0x00, 0x00, 0x00, 0x00, 0x00, 0x00, 0x00, 0x00, 0x00, 0x00,
  0x00, 0x00, 0x00, 0x00, 0x00, 0x00, 0x00, 0x00, 0x00, 0x00, 0x00, 0x00,
  0x00, 0x00, 0x00, 0x00, 0x00, 0x00, 0x00, 0x00, 0x00, 0x00, 0x00, 0x00,
  0x00, 0x00, 0x00, 0x00, 0x0a, 0x00, 0x00, 0x00, 0x59, 0x64, 0xb9, 0x3a,
  0xdd, 0xff, 0xb9, 0x3a, 0x41, 0x97, 0xe5, 0x3a, 0x04, 0x68, 0xb7, 0x3a,
  0xb8, 0x7b, 0xbc, 0x3a, 0x8d, 0x2f, 0xc0, 0x3a, 0xbb, 0x7f, 0xbf, 0x3a,
  0x42, 0x18, 0xcd, 0x3a, 0xde, 0xe7, 0xc7, 0x3a, 0x54, 0x7e, 0xde, 0x3a,
  0x0a, 0x00, 0x00, 0x00, 0x6a, 0x55, 0x2c, 0x3e, 0xdd, 0x8b, 0x38, 0x3e,
  0x12, 0xcc, 0x63, 0x3e, 0x03, 0xac, 0x31, 0x3e, 0x60, 0x41, 0x32, 0x3e,
  0xb8, 0x31, 0x35, 0x3e, 0xbc, 0x00, 0x3e, 0x3e, 0x11, 0x7e, 0x4b, 0x3e,
  0x0c, 0x4e, 0x3a, 0x3e, 0x57, 0xc1, 0x5c, 0x3e, 0x0a, 0x00, 0x00, 0x00,
  0x90, 0xf1, 0x37, 0xbe, 0xa8, 0xfa, 0x33, 0xbe, 0xfe, 0xb8, 0x46, 0xbe,
  0x34, 0xf9, 0x35, 0xbe, 0xc1, 0x02, 0x3b, 0xbe, 0x2e, 0xaf, 0x3e, 0xbe,
  0x52, 0x56, 0x29, 0xbe, 0x07, 0x5f, 0x2b, 0xbe, 0x0e, 0x58, 0x46, 0xbe,
  0x39, 0xcc, 0x47, 0xbe, 0x27, 0x00, 0x00, 0x00, 0x73, 0x65, 0x71, 0x75,
  0x65, 0x6e, 0x74, 0x69, 0x61, 0x6c, 0x2f, 0x63, 0x6f, 0x6e, 0x76, 0x31,
  0x64, 0x5f, 0x31, 0x2f, 0x63, 0x6f, 0x6e, 0x76, 0x31, 0x64, 0x2f, 0x45,
  0x78, 0x70, 0x61, 0x6e, 0x64, 0x44, 0x69, 0x6d, 0x73, 0x5f, 0x31, 0x00,
  0x04, 0x00, 0x00, 0x00, 0x0a, 0x00, 0x00, 0x00, 0x01, 0x00, 0x00, 0x00,
  0x05, 0x00, 0x00, 0x00, 0x1e, 0x00, 0x00, 0x00, 0x0a, 0xf9, 0xff, 0xff,
  0x00, 0x00, 0x00, 0x02, 0x44, 0x00, 0x00, 0x00, 0x02, 0x00, 0x00, 0x00,
  0x0c, 0x00, 0x00, 0x00, 0x04, 0x00, 0x00, 0x00, 0x84, 0xfa, 0xff, 0xff,
  0x2b, 0x00, 0x00, 0x00, 0x73, 0x65, 0x71, 0x75, 0x65, 0x6e, 0x74, 0x69,
  0x61, 0x6c, 0x2f, 0x63, 0x6f, 0x6e, 0x76, 0x31, 0x64, 0x5f, 0x31, 0x2f,
  0x63, 0x6f, 0x6e, 0x76, 0x31, 0x64, 0x2f, 0x45, 0x78, 0x70, 0x61, 0x6e,
  0x64, 0x44, 0x69, 0x6d, 0x73, 0x2f, 0x64, 0x69, 0x6d, 0x5f, 0x30, 0x00,
  0x02, 0x00, 0x00, 0x00, 0x01, 0x00, 0x00, 0x00, 0x04, 0x00, 0x00, 0x00,
  0x62, 0xf9, 0xff, 0xff, 0x00, 0x00, 0x00, 0x09, 0x74, 0x00, 0x00, 0x00,
  0x14, 0x00, 0x00, 0x00, 0x40, 0x00, 0x00, 0x00, 0x04, 0x00, 0x00, 0x00,
  0xf4, 0xf9, 0xff, 0xff, 0x2c, 0x00, 0x00, 0x00, 0x20, 0x00, 0x00, 0x00,
  0x14, 0x00, 0x00, 0x00, 0x04, 0x00, 0x00, 0x00, 0x01, 0x00, 0x00, 0x00,
  0x80, 0xff, 0xff, 0xff, 0xff, 0xff, 0xff, 0xff, 0x01, 0x00, 0x00, 0x00,
  0x39, 0x56, 0xb9, 0x3c, 0x01, 0x00, 0x00, 0x00, 0xe3, 0x9c, 0xb8, 0x40,
  0x01, 0x00, 0x00, 0x00, 0x00, 0x00, 0x00, 0x00, 0x25, 0x00, 0x00, 0x00,
  0x73, 0x65, 0x71, 0x75, 0x65, 0x6e, 0x74, 0x69, 0x61, 0x6c, 0x2f, 0x63,
  0x6f, 0x6e, 0x76, 0x31, 0x64, 0x5f, 0x31, 0x2f, 0x63, 0x6f, 0x6e, 0x76,
  0x31, 0x64, 0x2f, 0x45, 0x78, 0x70, 0x61, 0x6e, 0x64, 0x44, 0x69, 0x6d,
  0x73, 0x00, 0x00, 0x00, 0x04, 0x00, 0x00, 0x00, 0x01, 0x00, 0x00, 0x00,
  0x01, 0x00, 0x00, 0x00, 0x09, 0x00, 0x00, 0x00, 0x1e, 0x00, 0x00, 0x00,
  0xf2, 0xf9, 0xff, 0xff, 0x00, 0x00, 0x00, 0x02, 0xb0, 0x01, 0x00, 0x00,
  0x09, 0x00, 0x00, 0x00, 0x84, 0x01, 0x00, 0x00, 0x04, 0x00, 0x00, 0x00,
  0xe4, 0xf9, 0xff, 0xff, 0xfc, 0x00, 0x00, 0x00, 0x04, 0x00, 0x00, 0x00,
  0x1e, 0x00, 0x00, 0x00, 0x00, 0x00, 0x00, 0x00, 0x00, 0x00, 0x00, 0x00,
  0x00, 0x00, 0x00, 0x00, 0x00, 0x00, 0x00, 0x00, 0x00, 0x00, 0x00, 0x00,
  0x00, 0x00, 0x00, 0x00, 0x00, 0x00, 0x00, 0x00, 0x00, 0x00, 0x00, 0x00,
  0x00, 0x00, 0x00, 0x00, 0x00, 0x00, 0x00, 0x00, 0x00, 0x00, 0x00, 0x00,
  0x00, 0x00, 0x00, 0x00, 0x00, 0x00, 0x00, 0x00, 0x00, 0x00, 0x00, 0x00,
  0x00, 0x00, 0x00, 0x00, 0x00, 0x00, 0x00, 0x00, 0x00, 0x00, 0x00, 0x00,
  0x00, 0x00, 0x00, 0x00, 0x00, 0x00, 0x00, 0x00, 0x00, 0x00, 0x00, 0x00,
  0x00, 0x00, 0x00, 0x00, 0x00, 0x00, 0x00, 0x00, 0x00, 0x00, 0x00, 0x00,
  0x00, 0x00, 0x00, 0x00, 0x00, 0x00, 0x00, 0x00, 0x00, 0x00, 0x00, 0x00,
  0x00, 0x00, 0x00, 0x00, 0x00, 0x00, 0x00, 0x00, 0x00, 0x00, 0x00, 0x00,
  0x00, 0x00, 0x00, 0x00, 0x00, 0x00, 0x00, 0x00, 0x00, 0x00, 0x00, 0x00,
  0x00, 0x00, 0x00, 0x00, 0x00, 0x00, 0x00, 0x00, 0x00, 0x00, 0x00, 0x00,
  0x00, 0x00, 0x00, 0x00, 0x00, 0x00, 0x00, 0x00, 0x00, 0x00, 0x00, 0x00,
  0x00, 0x00, 0x00, 0x00, 0x00, 0x00, 0x00, 0x00, 0x00, 0x00, 0x00, 0x00,
  0x00, 0x00, 0x00, 0x00, 0x00, 0x00, 0x00, 0x00, 0x00, 0x00, 0x00, 0x00,
  0x00, 0x00, 0x00, 0x00, 0x00, 0x00, 0x00, 0x00, 0x00, 0x00, 0x00, 0x00,
  0x00, 0x00, 0x00, 0x00, 0x00, 0x00, 0x00, 0x00, 0x00, 0x00, 0x00, 0x00,
  0x00, 0x00, 0x00, 0x00, 0x00, 0x00, 0x00, 0x00, 0x00, 0x00, 0x00, 0x00,
  0x00, 0x00, 0x00, 0x00, 0x00, 0x00, 0x00, 0x00, 0x00, 0x00, 0x00, 0x00,
  0x00, 0x00, 0x00, 0x00, 0x00, 0x00, 0x00, 0x00, 0x00, 0x00, 0x00, 0x00,
  0x00, 0x00, 0x00, 0x00, 0x1e, 0x00, 0x00, 0x00, 0x0e, 0xc6, 0x88, 0x38,
  0x45, 0x78, 0x86, 0x38, 0xa4, 0x6c, 0x80, 0x38, 0x8a, 0xe7, 0x8d, 0x38,
  0x6d, 0xbd, 0x8e, 0x38, 0xb9, 0x29, 0x82, 0x38, 0x81, 0xf7, 0x66, 0x38,
  0x94, 0x28, 0x88, 0x38, 0x9b, 0xa7, 0x83, 0x38, 0x69, 0xf3, 0x93, 0x38,
  0x19, 0x1b, 0x8e, 0x38, 0x4c, 0x1f, 0x8b, 0x38, 0x29, 0x00, 0x83, 0x38,
  0x53, 0xe0, 0x83, 0x38, 0xdd, 0x6a, 0x84, 0x38, 0xae, 0x89, 0x81, 0x38,
  0x40, 0x47, 0x75, 0x38, 0xdd, 0x75, 0x90, 0x38, 0x9d, 0xce, 0x77, 0x38,
  0x9c, 0x4c, 0x88, 0x38, 0x80, 0x3c, 0x7a, 0x38, 0x76, 0x3d, 0x8b, 0x38,
  0xc7, 0x7e, 0x89, 0x38, 0x0c, 0x22, 0x87, 0x38, 0x49, 0x16, 0x82, 0x38,
  0x35, 0xfa, 0x82, 0x38, 0xb7, 0xd1, 0x86, 0x38, 0x6d, 0xfa, 0x8b, 0x38,
  0x6c, 0xf1, 0x8c, 0x38, 0xd8, 0xfd, 0x7d, 0x38, 0x1d, 0x00, 0x00, 0x00,
  0x73, 0x65, 0x71, 0x75, 0x65, 0x6e, 0x74, 0x69, 0x61, 0x6c, 0x2f, 0x63,
  0x6f, 0x6e, 0x76, 0x31, 0x64, 0x2f, 0x63, 0x6f, 0x6e, 0x76, 0x31, 0x64,
  0x5f, 0x62, 0x69, 0x61, 0x73, 0x00, 0x00, 0x00, 0x01, 0x00, 0x00, 0x00,
  0x1e, 0x00, 0x00, 0x00, 0xb2, 0xfb, 0xff, 0xff, 0x00, 0x00, 0x00, 0x09,
  0xb8, 0x02, 0x00, 0x00, 0x0a, 0x00, 0x00, 0x00, 0x84, 0x02, 0x00, 0x00,
  0x04, 0x00, 0x00, 0x00, 0x44, 0xfc, 0xff, 0xff, 0xfc, 0x01, 0x00, 0x00,
  0x7c, 0x01, 0x00, 0x00, 0xfc, 0x00, 0x00, 0x00, 0x04, 0x00, 0x00, 0x00,
  0x1e, 0x00, 0x00, 0x00, 0x00, 0x00, 0x00, 0x00, 0x00, 0x00, 0x00, 0x00,
  0x00, 0x00, 0x00, 0x00, 0x00, 0x00, 0x00, 0x00, 0x00, 0x00, 0x00, 0x00,
  0x00, 0x00, 0x00, 0x00, 0x00, 0x00, 0x00, 0x00, 0x00, 0x00, 0x00, 0x00,
  0x00, 0x00, 0x00, 0x00, 0x00, 0x00, 0x00, 0x00, 0x00, 0x00, 0x00, 0x00,
  0x00, 0x00, 0x00, 0x00, 0x00, 0x00, 0x00, 0x00, 0x00, 0x00, 0x00, 0x00,
  0x00, 0x00, 0x00, 0x00, 0x00, 0x00, 0x00, 0x00, 0x00, 0x00, 0x00, 0x00,
  0x00, 0x00, 0x00, 0x00, 0x00, 0x00, 0x00, 0x00, 0x00, 0x00, 0x00, 0x00,
  0x00, 0x00, 0x00, 0x00, 0x00, 0x00, 0x00, 0x00, 0x00, 0x00, 0x00, 0x00,
  0x00, 0x00, 0x00, 0x00, 0x00, 0x00, 0x00, 0x00, 0x00, 0x00, 0x00, 0x00,
  0x00, 0x00, 0x00, 0x00, 0x00, 0x00, 0x00, 0x00, 0x00, 0x00, 0x00, 0x00,
  0x00, 0x00, 0x00, 0x00, 0x00, 0x00, 0x00, 0x00, 0x00, 0x00, 0x00, 0x00,
  0x00, 0x00, 0x00, 0x00, 0x00, 0x00, 0x00, 0x00, 0x00, 0x00, 0x00, 0x00,
  0x00, 0x00, 0x00, 0x00, 0x00, 0x00, 0x00, 0x00, 0x00, 0x00, 0x00, 0x00,
  0x00, 0x00, 0x00, 0x00, 0x00, 0x00, 0x00, 0x00, 0x00, 0x00, 0x00, 0x00,
  0x00, 0x00, 0x00, 0x00, 0x00, 0x00, 0x00, 0x00, 0x00, 0x00, 0x00, 0x00,
  0x00, 0x00, 0x00, 0x00, 0x00, 0x00, 0x00, 0x00, 0x00, 0x00, 0x00, 0x00,
  0x00, 0x00, 0x00, 0x00, 0x00, 0x00, 0x00, 0x00, 0x00, 0x00, 0x00, 0x00,
  0x00, 0x00, 0x00, 0x00, 0x00, 0x00, 0x00, 0x00, 0x00, 0x00, 0x00, 0x00,
  0x00, 0x00, 0x00, 0x00, 0x00, 0x00, 0x00, 0x00, 0x00, 0x00, 0x00, 0x00,
  0x00, 0x00, 0x00, 0x00, 0x00, 0x00, 0x00, 0x00, 0x00, 0x00, 0x00, 0x00,
  0x00, 0x00, 0x00, 0x00, 0x1e, 0x00, 0x00, 0x00, 0x79, 0xcc, 0xca, 0x3a,
  0xfa, 0x61, 0xc7, 0x3a, 0x43, 0x6b, 0xbe, 0x3a, 0x05, 0x68, 0xd2, 0x3a,
  0x28, 0xa5, 0xd3, 0x3a, 0x32, 0xff, 0xc0, 0x3a, 0x22, 0x3b, 0xab, 0x3a,
  0xfa, 0xe2, 0xc9, 0x3a, 0x6d, 0x35, 0xc3, 0x3a, 0x18, 0x5f, 0xdb, 0x3a,
  0x77, 0xb4, 0xd2, 0x3a, 0xf4, 0x47, 0xce, 0x3a, 0x27, 0x3d, 0xc2, 0x3a,
  0x86, 0x89, 0xc3, 0x3a, 0xf1, 0x56, 0xc4, 0x3a, 0xe5, 0x11, 0xc0, 0x3a,
  0x4f, 0xd7, 0xb5, 0x3a, 0x35, 0x32, 0xd6, 0x3a, 0x3e, 0xb7, 0xb7, 0x3a,
  0x66, 0x18, 0xca, 0x3a, 0x4a, 0x84, 0xb9, 0x3a, 0xad, 0x74, 0xce, 0x3a,
  0x5e, 0xde, 0xcb, 0x3a, 0xb7, 0x5d, 0xc8, 0x3a, 0x60, 0xe2, 0xc0, 0x3a,
  0x53, 0x34, 0xc2, 0x3a, 0x9a, 0xe6, 0xc7, 0x3a, 0xdd, 0x8c, 0xcf, 0x3a,
  0x17, 0xfb, 0xd0, 0x3a, 0xff, 0x4c, 0xbc, 0x3a, 0x1e, 0x00, 0x00, 0x00,
  0x5d, 0xb3, 0x2e, 0x3e, 0x95, 0x9c, 0x3a, 0x3e, 0x6c, 0xee, 0x3c, 0x3e,
  0x35, 0xc3, 0x50, 0x3e, 0x70, 0x50, 0x34, 0x3e, 0x3f, 0x55, 0x2e, 0x3e,
  0xfd, 0xea, 0x27, 0x3e, 0x14, 0x29, 0x3c, 0x3e, 0xbf, 0xea, 0x31, 0x3e,
  0xc8, 0x39, 0x4e, 0x3e, 0x0e, 0x0f, 0x51, 0x3e, 0x0a, 0xc8, 0x22, 0x3e,
  0x9c, 0x3d, 0x40, 0x3e, 0x73, 0x02, 0x42, 0x3e, 0x89, 0x89, 0x27, 0x3e,
  0xd1, 0x75, 0x34, 0x3e, 0xe6, 0x78, 0x2e, 0x3e, 0x2e, 0x18, 0x3b, 0x3e,
  0x38, 0x8a, 0x30, 0x3e, 0x85, 0x6a, 0x43, 0x3e, 0xd8, 0x28, 0x37, 0x3e,
  0x1f, 0xf3, 0x33, 0x3e, 0xa1, 0x46, 0x4a, 0x3e, 0xfc, 0xcc, 0x46, 0x3e,
  0xa1, 0x07, 0x3a, 0x3e, 0xea, 0xaf, 0x40, 0x3e, 0xcd, 0x56, 0x46, 0x3e,
  0x88, 0x23, 0x3f, 0x3e, 0x21, 0x59, 0x4f, 0x3e, 0x65, 0xd4, 0x3a, 0x3e,
  0x1e, 0x00, 0x00, 0x00, 0xe0, 0x36, 0x49, 0xbe, 0x36, 0xd3, 0x45, 0xbe,
  0xf4, 0x1a, 0x3c, 0xbe, 0x04, 0xa2, 0x3f, 0xbe, 0xde, 0xfd, 0x51, 0xbe,
  0x34, 0x7d, 0x3f, 0xbe, 0xac, 0xe4, 0x29, 0xbe, 0x34, 0x4f, 0x48, 0xbe,
  0x02, 0xaf, 0x41, 0xbe, 0x5a, 0xa8, 0x59, 0xbe, 0x5e, 0x31, 0x24, 0xbe,
  0x64, 0xab, 0x4c, 0xbe, 0xad, 0xb8, 0x40, 0xbe, 0x68, 0xe9, 0x32, 0xbe,
  0x43, 0xce, 0x42, 0xbe, 0xc1, 0x91, 0x3e, 0xbe, 0xa0, 0x6b, 0x34, 0xbe,
  0xd1, 0x85, 0x54, 0xbe, 0xd0, 0x47, 0x36, 0xbe, 0x35, 0x84, 0x48, 0xbe,
  0x41, 0x11, 0x38, 0xbe, 0xc4, 0xd7, 0x4c, 0xbe, 0xc2, 0x86, 0x48, 0xbe,
  0xde, 0x12, 0x38, 0xbe, 0x9b, 0x60, 0x3f, 0xbe, 0x8b, 0x8c, 0x3f, 0xbe,
  0x70, 0x7a, 0x3b, 0xbe, 0xc3, 0xed, 0x4d, 0xbe, 0xea, 0xfa, 0x35, 0xbe,
  0xf7, 0x2f, 0x27, 0xbe, 0x25, 0x00, 0x00, 0x00, 0x73, 0x65, 0x71, 0x75,
  0x65, 0x6e, 0x74, 0x69, 0x61, 0x6c, 0x2f, 0x63, 0x6f, 0x6e, 0x76, 0x31,
  0x64, 0x2f, 0x63, 0x6f, 0x6e, 0x76, 0x31, 0x64, 0x2f, 0x45, 0x78, 0x70,
  0x61, 0x6e, 0x64, 0x44, 0x69, 0x6d, 0x73, 0x5f, 0x31, 0x00, 0x00, 0x00,
  0x04, 0x00, 0x00, 0x00, 0x1e, 0x00, 0x00, 0x00, 0x01, 0x00, 0x00, 0x00,
  0x05, 0x00, 0x00, 0x00, 0x0d, 0x00, 0x00, 0x00, 0x86, 0xfe, 0xff, 0xff,
  0x00, 0x00, 0x00, 0x02, 0x48, 0x00, 0x00, 0x00, 0x0b, 0x00, 0x00, 0x00,
  0x10, 0x00, 0x00, 0x00, 0x08, 0x00, 0x00, 0x00, 0x04, 0x00, 0x04, 0x00,
  0x04, 0x00, 0x00, 0x00, 0x29, 0x00, 0x00, 0x00, 0x73, 0x65, 0x71, 0x75,
  0x65, 0x6e, 0x74, 0x69, 0x61, 0x6c, 0x2f, 0x63, 0x6f, 0x6e, 0x76, 0x31,
  0x64, 0x2f, 0x63, 0x6f, 0x6e, 0x76, 0x31, 0x64, 0x2f, 0x45, 0x78, 0x70,
  0x61, 0x6e, 0x64, 0x44, 0x69, 0x6d, 0x73, 0x2f, 0x64, 0x69, 0x6d, 0x5f,
  0x30, 0x00, 0x00, 0x00, 0x02, 0x00, 0x00, 0x00, 0x01, 0x00, 0x00, 0x00,
  0x04, 0x00, 0x00, 0x00, 0xe2, 0xfe, 0xff, 0xff, 0x00, 0x00, 0x00, 0x09,
  0x70, 0x00, 0x00, 0x00, 0x12, 0x00, 0x00, 0x00, 0x40, 0x00, 0x00, 0x00,
  0x04, 0x00, 0x00, 0x00, 0x74, 0xff, 0xff, 0xff, 0x2c, 0x00, 0x00, 0x00,
  0x20, 0x00, 0x00, 0x00, 0x14, 0x00, 0x00, 0x00, 0x04, 0x00, 0x00, 0x00,
  0x01, 0x00, 0x00, 0x00, 0xe7, 0xff, 0xff, 0xff, 0xff, 0xff, 0xff, 0xff,
  0x01, 0x00, 0x00, 0x00, 0x7b, 0xa7, 0x2c, 0x3d, 0x01, 0x00, 0x00, 0x00,
  0x9a, 0x95, 0xcd, 0x40, 0x01, 0x00, 0x00, 0x00, 0x0e, 0x60, 0x8a, 0xc0,
  0x23, 0x00, 0x00, 0x00, 0x73, 0x65, 0x71, 0x75, 0x65, 0x6e, 0x74, 0x69,
  0x61, 0x6c, 0x2f, 0x63, 0x6f, 0x6e, 0x76, 0x31, 0x64, 0x2f, 0x63, 0x6f,
  0x6e, 0x76, 0x31, 0x64, 0x2f, 0x45, 0x78, 0x70, 0x61, 0x6e, 0x64, 0x44,
  0x69, 0x6d, 0x73, 0x00, 0x04, 0x00, 0x00, 0x00, 0x01, 0x00, 0x00, 0x00,
  0x01, 0x00, 0x00, 0x00, 0x31, 0x00, 0x00, 0x00, 0x0d, 0x00, 0x00, 0x00,
  0x6e, 0xff, 0xff, 0xff, 0x00, 0x00, 0x00, 0x09, 0x74, 0x00, 0x00, 0x00,
  0x08, 0x00, 0x00, 0x00, 0x50, 0x00, 0x00, 0x00, 0x10, 0x00, 0x00, 0x00,
  0x0c, 0x00, 0x14, 0x00, 0x04, 0x00, 0x08, 0x00, 0x0c, 0x00, 0x10, 0x00,
  0x0c, 0x00, 0x00, 0x00, 0x30, 0x00, 0x00, 0x00, 0x24, 0x00, 0x00, 0x00,
  0x18, 0x00, 0x00, 0x00, 0x04, 0x00, 0x00, 0x00, 0x01, 0x00, 0x00, 0x00,
  0x80, 0xff, 0xff, 0xff, 0xff, 0xff, 0xff, 0xff, 0x00, 0x00, 0x00, 0x00,
  0x01, 0x00, 0x00, 0x00, 0x39, 0x56, 0xb9, 0x3c, 0x01, 0x00, 0x00, 0x00,
  0xe3, 0x9c, 0xb8, 0x40, 0x01, 0x00, 0x00, 0x00, 0x00, 0x00, 0x00, 0x00,
  0x16, 0x00, 0x00, 0x00, 0x73, 0x65, 0x71, 0x75, 0x65, 0x6e, 0x74, 0x69,
  0x61, 0x6c, 0x2f, 0x63, 0x6f, 0x6e, 0x76, 0x31, 0x64, 0x2f, 0x52, 0x65,
  0x6c, 0x75, 0x00, 0x00, 0x04, 0x00, 0x00, 0x00, 0x01, 0x00, 0x00, 0x00,
  0x01, 0x00, 0x00, 0x00, 0x2d, 0x00, 0x00, 0x00, 0x1e, 0x00, 0x00, 0x00,
  0x00, 0x00, 0x0e, 0x00, 0x18, 0x00, 0x08, 0x00, 0x07, 0x00, 0x0c, 0x00,
  0x10, 0x00, 0x14, 0x00, 0x0e, 0x00, 0x00, 0x00, 0x00, 0x00, 0x00, 0x09,
  0x54, 0x00, 0x00, 0x00, 0x0c, 0x00, 0x00, 0x00, 0x38, 0x00, 0x00, 0x00,
  0x10, 0x00, 0x00, 0x00, 0x0c, 0x00, 0x0c, 0x00, 0x00, 0x00, 0x00, 0x00,
  0x04, 0x00, 0x08, 0x00, 0x0c, 0x00, 0x00, 0x00, 0x18, 0x00, 0x00, 0x00,
  0x04, 0x00, 0x00, 0x00, 0x01, 0x00, 0x00, 0x00, 0x80, 0xff, 0xff, 0xff,
  0xff, 0xff, 0xff, 0xff, 0x00, 0x00, 0x00, 0x00, 0x01, 0x00, 0x00, 0x00,
  0x00, 0x00, 0x80, 0x3b, 0x0d, 0x00, 0x00, 0x00, 0x49, 0x64, 0x65, 0x6e,
  0x74, 0x69, 0x74, 0x79, 0x5f, 0x69, 0x6e, 0x74, 0x38, 0x00, 0x00, 0x00,
  0x02, 0x00, 0x00, 0x00, 0x01, 0x00, 0x00, 0x00, 0x02, 0x00, 0x00, 0x00,
  0x07, 0x00, 0x00, 0x00, 0x7c, 0x00, 0x00, 0x00, 0x60, 0x00, 0x00, 0x00,
  0x44, 0x00, 0x00, 0x00, 0x38, 0x00, 0x00, 0x00, 0x20, 0x00, 0x00, 0x00,
  0x14, 0x00, 0x00, 0x00, 0x04, 0x00, 0x00, 0x00, 0xaa, 0xff, 0xff, 0xff,
  0x00, 0x00, 0x00, 0x06, 0x02, 0x00, 0x00, 0x00, 0xea, 0xff, 0xff, 0xff,
  0x00, 0x00, 0x00, 0x72, 0xd6, 0xff, 0xff, 0xff, 0x00, 0x00, 0x00, 0x19,
  0x02, 0x00, 0x00, 0x00, 0x00, 0x00, 0x06, 0x00, 0x08, 0x00, 0x07, 0x00,
  0x06, 0x00, 0x00, 0x00, 0x00, 0x00, 0x00, 0x16, 0xf2, 0xff, 0xff, 0xff,
  0x00, 0x00, 0x00, 0x11, 0x02, 0x00, 0x00, 0x00, 0x00, 0x00, 0x0a, 0x00,
  0x0e, 0x00, 0x07, 0x00, 0x00, 0x00, 0x08, 0x00, 0x0a, 0x00, 0x00, 0x00,
  0x00, 0x00, 0x00, 0x09, 0x04, 0x00, 0x00, 0x00, 0x00, 0x00, 0x0a, 0x00,
  0x0c, 0x00, 0x07, 0x00, 0x00, 0x00, 0x08, 0x00, 0x0a, 0x00, 0x00, 0x00,
  0x00, 0x00, 0x00, 0x03, 0x03, 0x00, 0x00, 0x00
};
unsigned int trained_tflite_len = 9152;
